, 532245991
- 501971663
_ 413917655
+ 413388060
. 355742758
। 302810686
to 210289504
$$ 206604685
### 206600586
▁### 206600538
Translate 185140780
Deva 162698543
WesternIndic 94396498
▁के 77897670
Dravidian 72766816
▁the 67143192
▁में 57985414
CentralIndic 56902346
Magadhi 55910132
? 48400289
▁है 45759842
Beng 45197980
▁، 44667067
TibetoBurman 44657320
▁( 41841343
▁की 40438557
▁۔ 40242072
क 39056186
hin 38704805
▁ते 37673620
Maharashtri 37567916
▁of 35956903
▁और 33973863
▁, 33624897
▁से 33517191
Latn 33396811
▁जे 33107206
▁and 32644445
▁꯭ 31501876
▁को 30529269
स 30298986
▁| 29773102
ः 29617690
Arab 29471657
▁न 29419252
न 28821029
eng 28425860
▁पर 28174614
▁to 27445029
ं 27166909
WestGermanic 27017244
▁a 26757241
mni 26273325
नि 26186195
▁आ 25842514
kas 25541656
▁in 25513197
▁एक 25233147
ले 24592785
▁का 24128361
▁- 24066538
) 23900157
▁છે 23896169
▁च 23667517
▁ᱫᱚ 23404144
▁" 23197313
म 23119732
मा 23074921
▁ᱠᱚ 22751892
▁ने 22076510
▁आहे 21892662
! 21517327
त 21470384
Correct 21466030
ों 21406082
Knda 21228695
▁' 21118610
▁कि 21090934
ता 20986027
▁र 20863794
: 20831112
kan 20744016
▁. 20737157
tam 20629850
Taml 20469258
को 20452243
▁ 20095001
' 20005335
▁جی 19485028
▁दे 19461288
ला 19453932
▁꯫ 19298256
▁᱾ 19272968
snd 19264290
mar 19167256
▁چھ 18502286
ल 18479342
▁ᱟᱡ 18453520
guj 18443135
Gujr 18436954
द 18396490
▁ਦੇ 18233769
▁کی 18089296
▁ऐ 18079257
ब 18048098
▁અને 17957540
य 17905846
▁हैं 17757580
ना 17689523
▁ka 17492532
ने 17339259
▁ਹੈ 17289102
ben 17151871
▁ਅਤੇ 17078547
▁हो 17015405
र 16792644
ज 16603471
না 16496326
mal 16439886
ৰ 16439048
pan 16423584
ʼ 16308928
Mlym 16212270
व 16175833
Guru 16157552
س 16065606
gom 16047693
ক 15987768
s 15937644
ত 15884762
গী 15728204
▁त 15560860
ম 15472296
brx 15372772
▁स 15325989
प 15275425
श 15171925
ो 15169127
▁आणि 15087160
doi 15080832
▁क 15017714
का 14987433
▁उ 14977508
tel 14945520
▁ᱟᱨ 14861328
▁आरो 14723329
▁म 14702967
▁ਨੂੰ 14670202
Telu 14657957
▁आनी 14467180
▁ᱨᱮ 14460112
▁जो 14457253
▁تہٕ 14411840
च 14360205
; 14220982
च्या 14194990
ट 14110224
▁۽ 13979967
ن 13922143
▁कर 13743365
▁गी 13743119
▁तो 13612445
ें 13591182
ह 13577183
▁अछि 13513159
▁अ 13337910
ব 13314091
AustroAsiatic 13292844
ड 13120800
▁या 13112762
▁ब 13079717
▁ki 13050681
ित 13024468
asm 13024253
বা 13018237
आ 12949427
▁ह 12933499
▁ᱨᱮᱭᱟᱜ 12919020
▁ꯑꯃꯁꯨꯡ 12893184
िक 12823681
ದ 12788378
▁is 12662884
▁অমসুং 12608512
▁बे 12584925
▁u 12549827
ꯗ 12529904
स्य 12523309
/ 12522076
npi 12421098
▁खे 12420346
ि 12243683
▁ऐं 12231956
ग 12229267
दा 12164754
जी 12116053
▁ये 12111049
▁इस 12075307
▁प 12068627
ली 11935077
▁लिए 11920272
ন 11873968
ꯅ 11868184
▁ಮತ್ತು 11804731
▁ओ 11705111
ના 11696095
ory 11684614
▁ग 11681035
ु 11638811
रा 11633016
म् 11630201
mai 11523066
थ 11518059
ां 11440959
Orya 11413852
▁এবং 11392951
ꯒꯤ 11381552
▁जी 11378685
▁बि 11373781
या 11270144
ہ 11258334
▁हे 11216089
প 11124599
खौ 11122238
Mtei 11116010
ण 11072789
▁द 11049678
▁ਦੀ 11022454
san 10963069
ને 10890561
র 10870622
▁भी 10848869
वा 10812384
▁सु 10808291
▁کے 10730355
री 10705700
Vedic 10698285
و 10671147
ک 10605428
▁ज 10600290
▁नहीं 10503667
▁that 10471511
▁) 10459750
▁छी 10388533
▁दी 10338096
ान 10335122
▁करने 10296364
▁for 10286506
▁ਵਿੱਚ 10282648
ू 10272592
▁जा 10267632
▁व 10233688
ꯁꯤꯡ 10211452
ہٕ 10208568
नो 10105320
ती 10071877
▁इ 10050639
▁मे 10031975
▁ख 10003587
sat 9976966
▁ᱦᱚᱲ 9947400
দা 9942274
Olck 9918554
▁منٛز 9901404
ের 9841586
▁ही 9820633
স 9771184
দ 9726677
শিং 9716284
ল 9689526
▁ïa 9642568
ची 9512951
কে 9460958
ख 9420058
ம் 9414449
க்க 9413670
▁प्र 9397016
▁दा 9381264
े 9318136
फ 9266897
ان 9247705
▁la 9194845
ꯕ 9191804
▁۾ 9190434
चे 9183301
▁ए 9166622
ং 9153839
ം 9102163
ର 9058426
मे 8993671
த்த 8978044
▁भ 8971390
▁ম 8955412
▁था 8952728
માં 8943215
ની 8850757
▁ई 8848792
ர 8848652
ই 8846968
▁हा 8845890
ार 8815177
ও 8807960
दे 8734779
ا 8677353
▁অ 8626332
▁ଏବଂ 8530750
▁सभ 8507547
ா 8484345
ப 8463465
▁on 8458722
▁ক 8444223
▁ই 8388037
▁આ 8368761
▁छ 8325597
ing 8309982
अ 8308026
▁க 8305283
ते 8270399
ன 8265897
ನ 8247919
▁was 8236451
▁اور 8235106
▁यह 8223032
ई 8205807
▁আৰু 8172694
ی 8167987
▁श 8126808
नी 8126041
வ 8121985
വ 8107182
▁ஒரு 8087494
्या 8073775
नें 8073144
न् 8069619
▁मंज़ 8047268
▁ᱵᱟᱝ 8026840
कर 7998672
▁மற்றும் 7994674
ਾਂ 7939234
▁फ 7875909
க 7857225
ம 7834497
▁छू 7831182
▁हम 7823753
খি 7822637
ো 7791380
ین 7785924
নি 7784852
▁अपने 7745541
्य 7739148
▁I 7716793
ನು 7700578
ळ 7690172
▁with 7679708
▁रूप 7658436
▁ਨੇ 7644859
लो 7641102
▁आं 7633989
ப் 7621773
হ 7542417
लाई 7532064
▁ان 7530451
জ 7520334
▁جو 7465243
▁ल 7461103
ून 7435936
▁य 7413424
▁The 7412262
▁सां 7363762
ए 7336740
ा 7335018
▁हुन 7319801
م 7316698
ப்ப 7303603
ர் 7303045
के 7254580
ꯁ 7250008
हरू 7246517
▁किया 7235933
▁হ 7223493
▁वा 7186750
गा 7176321
▁ਦਾ 7117604
दी 7110009
ہن 7088083
▁यो 7048986
ون 7037052
ను 7021516
▁श्री 7002463
ै 7000701
▁કે 6997175
তে 6985334
▁be 6982810
र् 6982735
ક 6979970
सी 6976646
रे 6908827
க் 6904728
▁मु 6892355
গ 6876915
ी 6868908
स् 6851531
▁इक 6840952
नाय 6840436
শ 6834834
ல் 6818044
▁تہ 6815981
ରେ 6809949
चो 6797968
ச 6794289
ਨ 6793952
ꯈꯤ 6782200
▁میں 6780965
्र 6776048
ت 6763033
ன் 6756784
ز 6747948
▁শ 6739798
▁ப 6735952
▁वि 6718237
▁he 6711002
▁साथ 6709315
से 6703988
ু 6702428
▁অসি 6702363
▁না 6693160
ात 6673920
’ 6670747
इ 6667727
i 6655766
▁તે 6641831
ाय 6627379
▁ꯁ 6593900
▁ᱠᱟᱹᱢᱤ 6590344
ே 6575918
▁as 6564431
▁ꯑꯗꯨ 6556120
▁ᱤᱧ 6552076
▁नि 6545850
த 6535843
து 6497078
▁ᱢᱤᱫ 6493112
ोर 6487608
ರ 6486760
ிய 6473664
▁അ 6471629
चा 6462062
▁س 6438195
▁ᱨᱮᱱ 6433132
ँ 6430065
তা 6410652
▁bad 6407098
ট 6406352
▁s 6394982
କୁ 6387481
▁আ 6365583
▁मा 6361767
یو 6358478
▁మరియు 6351940
িত 6349119
् 6320631
ல 6317457
▁ओस 6305665
ந்த 6299311
▁ব 6293165
दोंमोन 6248127
চ 6245483
ानि 6241328
ed 6237707
ाने 6237677
सा 6218505
▁कीज़ 6205433
▁वे 6183767
ವನ್ನು 6179487
▁বা 6167377
▁த 6166727
▁आस 6166523
টি 6164603
ाव 6163989
ത 6159410
ும் 6155972
ਕ 6135841
تھ 6133749
▁প 6122700
ന 6115965
ರು 6098916
▁ہے 6093191
க்கு 6089550
த் 6083132
▁ना 6080314
ل 6078108
ி 6061230
▁স 6046861
ਮ 6046092
ாக 6045533
की 6031149
urd 6030604
▁दि 6026276
▁प्रभु 6022646
ر 6003007
▁ত 5999216
ड़ 5994677
" 5983226
▁پ 5979437
▁his 5977488
ী 5972194
ಗಳು 5955604
▁ha 5943985
t 5937222
िया 5930378
▁அ 5925461
ری 5919989
ांत 5912924
a 5912060
▁ন 5905021
▁ഒരു 5903995
▁ਲਈ 5891068
▁by 5890608
େ 5871610
▁“ 5851134
▁এই 5848536
▁जाय 5847810
▁یہ 5841211
▁ᱞᱟᱹᱞᱤᱥ 5826516
▁गया 5825076
▁आप 5824524
▁ट 5810180
िस 5792211
▁ও 5787771
લ 5785690
▁ਹਨ 5783886
નો 5773088
e 5754132
▁ꯑꯁꯤ 5748944
ꯔ 5744070
ज़ 5743065
... 5741576
મ 5741224
▁"" 5739805
बो 5728236
ு 5726020
▁ᱮ 5719912
ન 5718087
ٹ 5714308
▁پر 5713531
▁ᱞᱟᱹᱜᱤᱫ 5711876
ೆ 5707906
ਤ 5705713
▁এ 5694363
ध 5685410
ꯒ 5684976
ান 5683545
లు 5682853
▁क्या 5674858
ான 5671819
▁सं 5660876
ोन 5651640
ौ 5646228
भ 5633805
্য 5632745
▁ਉਸ 5630756
ை 5619110
▁टॉम 5617324
कार 5613215
ட 5607013
ని 5583454
▁सँ 5581871
टी 5578865
▁jong 5574646
ب 5567496
▁राजा 5550858
ின் 5545355
वर 5544874
▁तर 5525596
▁اس 5524676
ার 5517197
▁सो 5507655
उ 5499229
मान 5486621
▁ம 5486376
▁an 5485549
रो 5482910
▁it 5481077
▁و 5470290
▁कन्नै 5462864
േ 5462053
▁تی 5457956
▁ச 5457007
ही 5449725
▁घर 5431620
th 5430746
h 5428058
▁ड 5424585
ಗಳನ್ನು 5409151
ಗಳ 5407345
▁are 5404496
ꯃ 5402476
▁ਕਿ 5400210
▁চ 5399960
▁थी 5392408
िन 5389575
वि 5380587
മ 5377411
ꯅꯕ 5373348
▁ਇਸ 5372038
থ 5364843
ார் 5343422
▁from 5321202
▁ᱠᱟᱱᱟ 5312332
▁कारण 5302884
ায় 5289400
फोर 5279233
▁ᱟᱢ 5274512
▁உ 5267460
▁जि 5264387
▁गो 5255593
ਲ 5250264
y 5241417
ᱟᱱ 5233262
ش 5231927
ల 5227181
ோ 5225663
▁बाद 5222668
ப்பு 5209902
▁ਇੱਕ 5199994
▁मैं 5199189
▁ফ 5186490
▁थ 5186314
▁लोक 5183922
▁ꯇ 5182264
▁ꯔꯤ 5162156
▁سے 5154481
ൻ 5153495
▁ᱞᱮᱫᱟ 5150752
দের 5143744
ര 5143724
ോ 5141683
▁জ 5140582
▁1 5139377
▁U 5136991
▁માટે 5126327
▁ਨਾਲ 5116225
▁बी 5114124
▁सी 5111765
▁ز 5108960
ால் 5102034
▁کو 5100637
जा 5096059
ર 5089269
াই 5080855
▁‘ 5074739
▁not 5073157
د 5072919
▁at 5059463
ियों 5054600
িক 5053173
વા 5049639
▁ஆ 5048806
ति 5030598
ਸ 5017629
ान् 5009886
▁तिमो 5008101
▁ਤੋਂ 5001640
ਣ 4994627
ು 4988299
ବ 4973814
▁मी 4972606
पी 4967598
▁वह 4964481
▁नेईं 4961940
▁काम 4959404
▁ᱡᱟᱦᱟᱸ 4953708
▁मो 4937040
▁ਸੀ 4929618
▁ن 4919622
ꯇ 4913332
য় 4911709
▁ᱱᱚᱶᱟ 4909288
▁তা 4903817
▁ᱩᱱᱤ 4902320
▁سان 4894845
ಕ 4893152
es 4889899
▁कम 4888725
▁ᱜᱷᱟᱹᱞ 4885760
▁করে 4880162
▁ল 4873927
▁எ 4858936
बी 4856234
▁ആ 4855642
چ 4855157
▁सि 4850151
▁कहा 4849162
એ 4847259
▁दिन 4844744
▁இந்த 4840595
াৰ 4827577
વ 4809818
▁you 4796962
লি 4792613
▁যে 4783867
સ 4779968
▁कु 4771361
த்தில் 4768825
▁প্র 4764896
లో 4761254
ட்ட 4752371
▁मन 4750919
ৎ 4745746
ತ 4742409
er 4739263
▁पु 4736727
થી 4731901
ો 4725775
o 4724235
ാ 4717621
ం 4712597
ઓ 4708652
▁د 4704638
য়ে 4689374
मी 4685822
▁ᱠᱟᱛᱷᱟ 4679000
ில் 4674982
ದಲ್ಲಿ 4667993
▁ꯑꯃ 4662844
▁have 4647812
m 4644391
वे 4636143
ੋ 4630050
ಸ 4626416
ियो 4623743
णी 4620583
▁کر 4591992
▁வ 4589841
ڪ 4589366
ല 4586013
▁2 4580171
▁ଆ 4574585
▁ꯀ 4563484
▁k 4558861
p 4550240
ar 4549725
▁ସ 4546949
▁ले 4546642
▁हिकु 4544503
வு 4543601
▁প্ৰ 4543037
▁ب 4523523
ണ 4521484
த்து 4518659
ಲ 4500052
▁ꯄ 4496172
ꯀ 4491596
ർ 4482150
لی 4475834
▁भारत 4473223
ங்கள் 4472534
▁लेल 4470297
▁गु 4463435
▁उस 4463025
▁আমি 4456184
ವು 4453477
चें 4452490
▁থ 4451390
ைய 4448515
ଙ୍କ 4438549
ंग 4437715
▁इन 4435532
▁नों 4430705
ے 4430679
▁ᱢᱮ 4424440
▁अस 4423380
▁ला 4422331
▁ꯔ 4421536
ꯥ 4413140
बा 4411480
स्ट 4408914
পা 4406084
▁तक 4399212
▁आय 4397945
क् 4392475
খ 4389720
हा 4383350
▁પર 4377034
▁बु 4369682
ము 4360833
▁बा 4356751
पा 4355851
ಮ 4354760
▁ਉਹ 4346873
जे 4346333
ारि 4345654
लें 4344184
ண 4340276
▁राज 4337687
য়া 4337553
▁ہ 4334843
शी 4330260
▁दु 4328726
▁ந 4327977
क्ष 4327826
▁ન 4327446
▁A 4319951
▁बै 4319203
▁this 4318946
সি 4318833
िल 4315660
in 4314667
লে 4310560
ᱥ 4310036
ನ್ನು 4304724
▁જે 4304201
▁पास 4301891
▁ध 4301417
▁ಅ 4297218
▁नाही 4292412
▁ਸ 4290558
▁स्व 4287365
▁ക 4287293
તા 4285403
ു 4281125
▁अब 4267354
ત 4261295
াক 4260605
गी 4246531
তি 4243645
थि 4235467
्रा 4234217
▁মা 4222108
ৱ 4218364
ற்ற 4208642
▁একটি 4204306
ᱳ 4201520
ار 4200847
फोरनि 4198825
▁سۭتۍ 4198528
िर 4194200
ास 4192611
શ 4192605
), 4192442
यां 4192396
▁कोई 4189033
▁એક 4188229
বি 4185316
▁4 4183006
▁م 4179895
াম 4176151
▁सर्व 4173543
जों 4167146
▁ban 4162422
▁পু 4158719
ٽ 4158019
▁چ 4151521
al 4146211
দি 4144348
ಿ 4140936
ভ 4139134
▁उप 4134942
▁p 4130784
కు 4130273
న 4129330
ക്ക 4126732
ൽ 4123663
▁सा 4120301
▁करे 4116051
রি 4114926
ುವ 4114446
▁മ 4112166
ور 4106903
▁کا 4099231
ओ 4096016
▁ہو 4095573
▁ಈ 4094132
▁मोनसे 4090807
k 4089690
▁জন্য 4087873
▁என்று 4084946
ಗ 4080000
▁दिया 4077628
▁گ 4071945
ಡ 4068297
टा 4060424
▁کہ 4058252
ণ 4054507
▁कयो 4052090
ष 4050407
▁ಆ 4047864
▁तुम 4044927
▁آھی 4044878
وں 4044027
▁পা 4042607
କ 4035279
ٕ 4034904
ে 4027473
▁ଏକ 4023801
डी 4022182
ய 4020282
ओं 4012123
▁has 4011882
▁হয় 4010968
▁देश 4009940
தி 4003343
हे 3997770
▁b 3994072
▁গ 3992476
جی 3991634
த்தை 3990764
▁ᱚᱱᱟ 3975544
▁ک 3974796
▁थाखाय 3973365
ाना 3969038
▁will 3966703
ੂ 3964036
▁ਨਹੀਂ 3960615
ھ 3959272
▁آ 3958861
چھس 3956744
ल् 3953551
त् 3948382
▁खां 3945631
ீ 3942590
▁जान 3941850
েল 3936129
സ് 3935312
▁ᱢᱤᱫᱴᱟᱝ 3934228
ुं 3931140
ام 3926972
ೇ 3925961
ச் 3923399
▁कुर 3910903
ା 3909405
▁जब 3909250
ക 3905032
▁मान 3904995
▁केँ 3902713
▁लाइ 3901816
▁ସେ 3898105
▁જ 3893914
▁ओह् 3891494
▁कुछ 3887404
▁ಕ 3881524
▁पा 3880268
दार 3879965
▁रहे 3874833
▁ba 3872383
ع 3872169
▁লৈ 3871108
বু 3869396
▁? 3866759
▁नहि 3862984
▁प्रति 3862296
ന്റെ 3858685
▁ت 3857140
ശ 3854655
an 3851285
ेल 3849870
ମ 3848234
▁বি 3846496
छ 3844907
▁th 3844193
▁অদু 3843984
സ 3843017
જ 3842422
▁খ 3836811
ंत 3834036
ক্ 3830773
ृ 3830504
রা 3829914
▁उं 3827131
▁एह् 3825016
ಪ 3819515
ଣ 3819475
ந்து 3812460
ꯖ 3811600
ਦਾ 3809408
▁बात 3805884
ନ 3804173
..... 3801608
▁ج 3801055
ಲ್ 3799016
પ 3797471
▁3 3797382
ਿਆ 3795839
▁युस 3793986
پ 3789811
▁तां 3789408
▁तु 3789143
▁राज्य 3777741
4 3777159
ꯠ 3773948
▁অমা 3766369
ꯈ 3765276
ुक 3761122
b 3760138
▁S 3758928
ஸ் 3752804
▁10 3744928
েন 3744514
▁ꯃ 3742476
▁ر 3741417
గా 3735821
వ 3734333
शा 3733714
▁ପାଇଁ 3732395
▁کان 3732286
▁اکھ 3729312
ah 3728323
▁हर 3728282
ನ್ 3725840
1 3725012
▁un 3720563
ട 3719995
▁ਆ 3719978
ವ 3719096
ج 3717067
▁ᱪᱮᱛᱟᱱ 3714972
▁ਜੋ 3708244
নে 3708006
▁ಬ 3705721
," 3705415
ंद 3704931
▁ఆ 3703210
ೋ 3701723
ಾ 3696388
▁पी 3693850
ाम 3689838
রে 3686500
▁: 3685318
ਸ਼ 3685184
▁ਉਨ੍ਹਾਂ 3683226
া 3681721
বে 3681179
u 3679255
▁अनु 3677785
▁N 3675421
▁দ 3669184
মা 3659967
ரி 3657877
ங்க 3656282
on 3655919
▁थे 3653802
ꯜ 3653304
ॉ 3652384
ल्या 3651939
▁रो 3648875
▁ਇਹ 3647793
ᱴ 3637600
ꯅꯤ 3636056
டி 3634838
फोरखौ 3632821
تی 3631592
క 3630819
खा 3630643
▁अहाँ 3628726
ऊ 3627945
ಲು 3624724
ानां 3619329
▁घ 3618088
▁गेल 3611304
▁ش 3609738
ટ 3607342
ᱨᱤ 3605072
▁ᱞᱮᱱᱟ 3604912
▁सरकार 3604455
র্ 3602191
टे 3599584
▁ᱠᱷᱚᱱ 3594128
ᱠ 3593468
மான 3593177
গা 3591451
ly 3590377
▁कऽ 3588821
ق 3586880
▁दो 3586356
യ 3583485
यो 3582223
▁” 3581489
ठ 3581043
ुर 3579416
▁ᱟᱹᱰᱤ 3578440
ਪ 3573840
▁देख 3573420
▁بنیأدی 3571800
ات 3571165
ாய 3569117
kha 3565224
▁रहा 3559383
િ 3557483
िय 3552612
கள் 3546098
िंग 3545732
ाल 3544064
▁പ 3540308
2 3539797
▁तरह 3538244
n 3538003
▁B 3537328
ிக்க 3537327
▁ꯂꯩ 3536348
ৈ 3533309
5 3533246
जन 3531444
▁ا 3530558
ਵ 3529518
▁अन 3526980
ফ 3526243
▁نے 3522405
▁کران 3522110
▁ᱞᱮᱠᱟᱛᱮ 3519216
▁जाता 3518265
▁نہ 3508562
शन 3505372
மாக 3503244
ട്ട 3502720
▁یا 3502460
জি 3499588
ડ 3499472
सि 3494002
▁கு 3489551
▁সে 3485829
▁ہڪ 3483028
ં 3482120
ꯔꯤ 3480492
3 3477148
▁અ 3472194
▁मां 3465124
ಕ್ಕೆ 3463250
▁19 3460239
प्र 3457986
▁அவ 3447310
ꯛ 3446460
ਰ 3445705
▁द्वारा 3442947
▁ક 3442288
्स 3439297
िम 3438298
▁تم 3431628
ವಾಗಿ 3429396
▁پیٹھ 3428782
ான் 3428745
▁అ 3428446
ंक 3424530
▁ভ 3422510
▁ᱟᱠᱟᱫᱟ 3421032
উ 3420933
▁अपनी 3419808
▁ਵੀ 3412756
ط 3411975
▁or 3410176
ଲ 3409675
▁said 3406023
ائی 3405524
ਦ 3404779
▁आसा 3398784
▁परमेश्वर 3398122
সন 3393211
▁ف 3391923
ड़ी 3387083
it 3381747
ंड 3381012
▁ತ 3378509
ঃ 3378347
▁ನಾನು 3378283
▁समय 3377023
ந 3376832
▁ᱞᱟᱹᱭ 3375720
த்தின் 3372417
ള 3371542
स्त 3369646
ையில் 3364666
▁نہٕ 3360928
▁म्ह 3353217
اہ 3351900
▁P 3349625
▁ꯂꯥꯏ 3347232
6 3344582
▁जन 3344256
▁પણ 3339824
ರ್ 3339628
റ 3337193
ി 3331988
▁நான் 3330210
▁ನ 3329580
ानी 3326191
▁پی 3323908
▁किन 3323002
ിക്ക 3319608
ങ്ങൾ 3319284
ത്തിൽ 3318567
▁ପ 3318497
णा 3318089
▁हुई 3315849
▁ఈ 3313351
▁کیا 3312981
یل 3309525
▁5 3308695
▁सम 3308646
டு 3308237
मि 3305311
▁ট 3303982
g 3302256
ਹ 3301214
▁ಪ 3299973
ٮ۪ 3297488
ैत 3295607
▁छथि 3295516
യിൽ 3289562
▁पे 3288900
ꯄ 3287784
▁কৰা 3285944
▁ಇ 3280075
▁ᱮᱢ 3278852
▁आस्तै 3277584
▁যা 3276191
तात 3274080
ੇ 3266784
ۍ 3264849
▁କ 3264468
ರಿ 3264148
லை 3263814
ിച്ചു 3263702
▁ಎಂದು 3261552
▁करता 3255755
▁પ્ર 3246883
▁क्र 3241313
ಿನ 3241222
ਬ 3240349
▁তৌ 3228721
ف 3227434
तो 3226221
▁all 3225673
ক্ত 3220241
सो 3217020
নবা 3216756
ꯝ 3216140
യും 3214993
▁এক 3214383
lus 3213272
▁വ 3212297
▁खा 3211569
ਟ 3210912
ையும் 3209822
ள 3209471
▁आज 3206413
ڈ 3204168
ال 3202346
▁কি 3200761
▁اوس 3199413
▁ಮ 3198380
ୀ 3189877
▁എ 3187721
▁बहुत 3186258
▁n 3185731
ꯒꯅꯤ 3185540
▁ବ 3181356
▁they 3178585
दि 3177317
▁अधिक 3176579
ೂ 3171964
8 3171213
ꯩ 3168816
en 3166146
▁ऊँचा 3160805
▁ଓ 3160135
ি 3158164
ಿಗೆ 3157894
▁ତୁମ୍ଭ 3157297
▁which 3156815
▁ꯑꯩ 3156180
▁کرنہٕ 3154868
ത്ത 3154068
গনি 3149989
▁ਹੋ 3149875
ુ 3146582
િત 3143279
ন্দ 3141007
▁ಅವರು 3140485
एं 3134770
▁विकास 3134731
▁नाम 3128096
कि 3126646
ச்ச 3125372
▁അവ 3124997
▁सब 3122952
▁করা 3122394
▁ꯂ 3121456
▁कह 3118291
केँ 3118269
सं 3116817
ড 3113477
▁কর 3113283
था 3113031
▁ᱥᱟᱶᱛᱮ 3108820
▁ന 3103550
ोग 3102348
ண்ட 3101923
ற 3099706
ᱟᱨ 3098008
തി 3094855
টো 3093434
तु 3090882
▁ਪ 3090038
णे 3088627
▁f 3088212
▁K 3085475
ꯁꯤꯡꯒꯤ 3083364
लि 3082899
फोरा 3074137
ળ 3068151
िका 3068088
െ 3066756
ष्ट 3065729
ंदा 3065298
▁C 3064553
▁इस्राएल 3063735
ਗ 3063233
▁ત 3060396
ٲ 3059546
▁હું 3058651
ي 3057478
▁ती 3055715
ಣ 3048442
ীয় 3043638
चेर 3042588
▁करते 3041691
▁তিনি 3037237
▁आहिनि 3035763
াল 3033438
ಾಗ 3031712
▁کس 3029604
ી 3027811
▁നി 3027492
ਤਾ 3027397
ಹ 3026614
▁બ 3026186
▁me 3026171
▁स् 3025793
പ്പ 3025743
ିତ 3025020
▁मेरे 3023837
ारा 3022672
▁अस्ति 3020616
ਰਾ 3016563
▁র 3015596
வை 3015265
یا 3014981
رو 3014300
▁؟ 3011341
று 3009956
▁ꯏ 3009760
वी 3009322
▁আছে 3008208
▁ل 3007729
య 3007472
শিংগী 3006114
▁बो 3004964
మ 3002012
्ट 2994869
▁ਮ 2993086
ছ 2992618
త 2990557
ું 2989504
▁તમે 2989319
▁शा 2987310
மை 2986375
▁अन्य 2985624
ꯟ 2985284
▁रह 2983935
نہٕ 2983908
▁لاء 2982929
ಿಯ 2982507
शे 2981939
▁ज़ 2981471
रि 2979730
ത് 2974519
ুর 2970837
▁তার 2964083
▁; 2958637
گ 2954739
വും 2953400
▁0 2952479
▁अपन 2950894
▁કરી 2947720
sin 2946946
▁लेकिन 2946617
▁ਤ 2945109
▁कीता 2944677
▁D 2942690
ਜ਼ 2939734
ूं 2938853
▁ᱥ 2938244
▁He 2936472
▁ಯ 2935890
ers 2934063
পু 2933435
▁राम 2933220
▁പ്ര 2930051
डे 2925290
ପ 2920056
▁ଅ 2917729
னை 2915182
▁गए 2913363
▁ᱩᱱᱠᱩ 2913088
▁ꯄꯤ 2912880
க்கும் 2912317
മായി 2909438
▁સ 2908710
▁छल 2908117
▁खातीर 2900156
ద 2897413
▁സ 2896290
▁तुस 2896051
▁নি 2895966
ाह 2893645
्री 2892609
याव 2891362
▁ٹ 2891277
▁their 2890818
িল 2888888
▁એ 2883685
▁रे 2879455
▁அவர் 2878169
▁मै 2877875
▁बार 2875729
▁अनि 2874834
▁উ 2873883
ే 2873322
▁क्षेत्र 2872428
▁G 2871326
▁ത 2871218
7 2870121
्व 2869334
ূ 2867598
▁also 2867232
مت 2866404
मो 2865778
ிர 2865557
▁નથી 2865220
، 2864711
ણ 2863674
▁आहेत 2860737
▁ধ 2860542
▁c 2860530
ক্তা 2860406
▁j 2857999
▁ওই 2856552
િક 2855986
ുക 2855520
▁उन 2852316
बे 2852093
am 2851237
্ৰ 2849763
▁पेठ 2849201
ಿಕ 2848542
▁होता 2848248
▁ᱛᱮ 2843616
▁m 2841892
▁இது 2839205
▁طور 2835726
करण 2834867
मध्ये 2834519
ꯗꯤ 2832172
களை 2832032
Sinh 2830030
▁ഈ 2829802
▁अव 2827385
▁ಹ 2826691
▁कई 2826242
ڑ 2821345
ଳ 2818779
▁करा 2818485
▁ਤੇ 2815970
▁মহাক্কী 2815865
డు 2814598
ೆಯ 2813725
ും 2811646
▁M 2811596
▁ڪری 2811317
▁were 2810982
▁R 2810908
ழ 2810668
▁t 2810323
ഹ 2809575
ય 2809013
ീ 2807747
▁H 2806401
ꯊ 2802392
नु 2801297
9 2801121
ಗೆ 2800521
ᱼᱟ 2800392
▁करना 2799410
▁ꯑ 2798864
ꯥꯟ 2796904
কী 2796654
స్ 2795614
▁ٿو 2795158
ਰੀ 2794694
▁And 2794171
ൂ 2793013
गोन 2788940
l 2786871
ര്‍ 2786009
ᱤ 2785744
▁جا 2785710
ಾದ 2785686
പ 2782537
മായ 2782376
c 2779800
ಟ 2778935
ೀ 2778933
▁آہی 2778221
িং 2773934
.. 2773660
▁तथा 2773015
▁विचार 2772930
▁சு 2766633
डा 2766250
▁हुआ 2764913
▁ہنٛد 2764096
ଦ 2761903
▁डे 2761557
ప 2758537
ਜ 2757968
▁बियो 2757384
નું 2756180
▁দি 2752665
ரு 2752489
▁होई 2751224
आव 2750181
্রা 2748949
▁ᱚᱠᱛᱚ 2747956
▁ᱟᱭᱢᱟᱜᱟᱱ 2747852
ସ 2746929
യുടെ 2746094
ra 2745453
▁క 2744228
દ 2741120
دی 2740329
ర 2739782
ਤੇ 2738770
ধ 2737393
ന്നു 2736729
ये 2734503
द् 2732220
ꯖꯤ 2732192
ᱤᱥ 2732184
▁करैत 2731662
▁اتھ 2729699
▁પ 2727232
▁ꯃꯍꯥꯛꯀꯤ 2726660
ന്‍ 2726130
રી 2724336
▁ता 2723574
می 2722458
ڊ 2720109
வும் 2719819
▁kaba 2717660
ജ 2714829
मन 2712932
ଗ 2710412
▁মই 2709647
्यू 2708751
▁हिन 2707998
▁him 2707683
▁T 2706871
ꯀꯤ 2706428
দগী 2705658
سی 2703883
▁স্ 2697694
▁हुए 2697075
ন্ত 2696782
▁हू 2694425
▁20 2693667
▁ᱜᱤᱫᱽᱨᱟᱹ 2692776
▁ಪ್ರ 2692430
▁ದ 2691845
ষ্ট 2687009
ରୁ 2686615
▁মে 2685100
मोन 2684686
▁ਬ 2684646
▁इति 2683951
▁। 2683314
ଲେ 2682706
▁फिर 2682159
ਡ 2681806
ਿਕ 2680133
▁L 2677597
▁J 2674707
▁ବି 2673691
▁In 2672653
ദ 2671098
▁വി 2669244
ગ 2668609
നി 2666056
▁থেকে 2665229
at 2664576
ାର 2663123
ಶ 2662865
ول 2662037
वार 2661741
▁ഇ 2660658
ৰ্ 2660026
வி 2658369
▁மு 2658363
▁कै 2656203
▁మ 2654778
▁خٲطرٕ 2653996
ꯁꯤ 2653476
र्स 2652893
ڻ 2652105
ിച്ച 2651894
▁இ 2651320
লা 2649317
ਦੇ 2649313
ூ 2649021
মি 2647864
▁ꯌ 2646468
or 2645633
ح 2644754
बाट 2643540
▁ಸ 2643451
ಯ 2641536
▁بہٕ 2640020
▁ꯂꯩꯕ 2639808
▁ꯇꯧ 2639612
▁ꯆ 2639240
▁સાથે 2638676
▁सेवा 2633955
▁ਕਰਨ 2633058
ಸ್ 2631346
▁ਯ 2630667
▁बना 2629105
▁ꯍ 2629008
ियन 2628674
ୋ 2626066
రు 2624756
▁ꯑꯣꯏ 2624392
▁تو 2623613
▁ꯃꯤꯑꯣꯏ 2622636
മാ 2619860
▁जंहिं 2619816
▁होते 2618259
ாத 2617958
▁वेंदो 2616771
▁பிர 2616032
▁য 2614008
▁सह 2609110
फ़ 2608711
वान् 2607733
હ 2605404
▁but 2602580
ெ 2601203
ৌ 2600464
िश 2598754
गे 2596185
▁करो 2595746
▁6 2588912
ாவ 2588244
▁ਕੀਤਾ 2586879
▁d 2586234
टर 2586041
ड़ा 2585665
ಜ 2585082
ꯥꯏ 2584520
▁வி 2583478
▁কো 2583126
▁بر 2579489
્યા 2577948
्रे 2573709
▁مان 2570451
ಾಯ 2570417
ర్ 2569608
▁মহাক্না 2568958
▁पंहिंजे 2568412
ക്ക് 2566082
▁ர 2565400
▁ମ 2563837
▁ਮੈਂ 2563180
▁बन 2563113
▁दं 2562571
▁ਕਰ 2562128
▁ৰ 2561336
▁ਗਿਆ 2561249
▁خ 2560897
▁had 2560612
રા 2560391
ായ 2559860
िप 2554121
ছিল 2552436
▁लागि 2551431
▁ନ 2549499
▁মীওই 2549196
ছে 2547759
▁पूर्व 2547480
क्स 2546808
ಕ್ 2546248
▁18 2544539
ोक 2544120
▁ڪ 2543334
▁13 2543208
▁ਗ 2542919
ꯦ 2540608
हि 2536375
▁एहि 2534750
ે 2534581
ତ 2534147
▁ع 2532145
வே 2530431
ર્ 2530209
% 2529847
▁रा 2527448
ஜ 2520841
▁परि 2518376
▁ï 2518131
న్ 2517964
લી 2517253
▁بی 2516178
▁ప 2514973
▁आखेआ 2514428
મા 2512160
▁ਕ 2511848
▁पनि 2509195
రి 2508594
মে 2507730
ම 2507084
ਤੀ 2503375
▁15 2497319
୍ଯ଼ 2495011
▁এটা 2494736
▁मार 2494515
ᱨᱮ 2494284
▁गर्न 2492896
ಳ 2489816
ांनी 2489253
हर 2488214
ப்பட்ட 2488090
▁खु 2483123
▁ਅ 2482478
ण्ड 2482225
▁12 2481855
▁ہیں 2481767
ang 2481444
▁कार 2480801
ꯥꯅ 2480256
ᱟᱢ 2479104
▁ᱪᱟᱞᱟᱣ 2477580
نی 2477344
▁g 2476440
ମାନେ 2474619
্র 2472774
▁सुन 2471829
▁गई 2471477
▁तब 2470513
▁हांव 2470403
is 2469478
ୁ 2469395
ഗ 2468959
గ 2468205
▁یس 2467952
ꯇꯤ 2467480
ാൻ 2467111
▁मिल 2462406
্যা 2461072
▁रख 2461001
▁ꯅ 2455140
یر 2454972
▁ଗ 2450571
ேன் 2450346
▁होने 2450306
हरूको 2449772
્યો 2449620
બ 2448330
ட்டு 2447956
▁ی 2447909
▁ꯗ 2447034
ꯣ 2446704
▁हाथ 2446082
രി 2445975
▁खो 2445111
વી 2444788
▁लोग 2443622
ார 2442021
ھن 2441871
ঙ 2440473
ᱵ 2439930
ꯆ 2439840
ట 2433490
▁जीवन 2428654
as 2428610
▁ᱥᱟᱱᱟᱢ 2427832
थाय 2427759
ুম 2427021
వా 2424594
ম্বা 2424000
्रो 2420330
नां 2419969
োল 2419772
▁लग 2419736
ால 2417857
▁ਨ 2417325
▁na 2417123
▁मि 2416851
ri 2414682
▁ಮಾಡ 2414317
▁त्या 2412973
▁ڪرڻ 2412791
0 2411543
▁ನೀವು 2410111
▁वियो 2410017
▁യ 2409541
▁them 2406786
▁କରି 2405165
▁यदि 2404471
▁ꯔꯦ 2403748
▁ᱵᱮᱱᱟᱣ 2402556
▁যি 2401034
ꯈꯤꯕ 2400492
▁who 2399019
▁मोन 2398589
▁वै 2397968
te 2393426
▁তাদের 2389598
▁ਆਪਣੇ 2387675
▁अप 2387420
▁જો 2387290
▁ꯅꯍꯥꯛꯅ 2386364
ꯃꯤ 2386132
ꯤ 2385036
▁her 2384139
ন্ন 2383821
લા 2380469
ꯦꯜ 2379562
ুং 2378864
िव 2377859
el 2375819
▁பு 2375626
▁ڪیو 2374058
বগী 2372309
▁कार्य 2371011
ையை 2370144
വി 2368879
ଶ 2363923
ിൽ 2363119
ത്തെ 2362373
जो 2361838
টা 2361362
▁आर 2357995
▁বাবে 2356264
श् 2355937
▁हि 2355865
மா 2355284
ᱯ 2354492
w 2353831
▁रही 2351366
▁ایک 2348964
▁फै 2348724
ത്തിന്റെ 2346290
हरूले 2344457
▁কে 2342560
▁प्राप्त 2341234
▁किसी 2340583
▁সং 2339388
ਨਾ 2339206
▁ꯐ 2338392
ꯦꯟ 2338032
▁साम 2336798
▁उपयोग 2336101
▁साल 2335438
▁শা 2335438
▁एम् 2333231
ন্স 2332526
റ്റ 2328135
ின 2328101
▁می 2327088
▁बारे 2327005
▁बीच 2326543
اد 2325360
▁ਕੇ 2324901
▁ఒక 2323984
ಾನ 2323760
ꯣꯔ 2323068
सर 2322618
▁वाले 2320650
▁long 2319906
▁ای 2319292
ائ 2316825
तः 2313385
▁লাই 2312614
▁ਵਿਚ 2310654
▁तूं 2310493
ಮ್ 2310051
▁ৱা 2308851
لا 2308725
▁लोगों 2308010
▁خداوند 2306556
▁सकता 2305135
ोल 2304926
▁கோ 2303966
ᱤᱱ 2303380
▁నేను 2303025
ிக 2302145
णु 2302032
اب 2301113
স্ 2297406
▁ഞാൻ 2295702
d 2295103
क्ट 2293884
्यान 2291736
▁एकटा 2291076
ꯨ 2289916
▁جي 2288341
ेन 2285981
▁आई 2285793
▁আর 2284517
হা 2284065
ள்ள 2283921
▁ᱱᱟᱯᱟᱭ 2283316
▁तू 2282924
▁पै 2282622
ৰি 2281326
▁one 2280774
▁पहले 2280591
ವಾದ 2279543
वन 2276531
▁వి 2275679
দু 2274617
ত্র 2273833
फा 2273143
డ 2272928
▁अख 2271660
▁केले 2271419
ହ 2270360
▁ਪ੍ਰ 2269992
▁योजना 2269711
घ 2265644
▁મ 2265081
▁11 2265044
दो 2264395
ମାନଙ୍କ 2263584
দে 2262789
ꯂꯤ 2262668
न्स 2262424
ಬ 2262335
▁सभक 2262112
▁ਹ 2260645
सँ 2260474
▁ᱡᱮ 2260028
را 2259753
ꯣꯟ 2259716
ാണ് 2259446
ऽ 2259092
झ 2259061
......... 2258346
▁समझ 2257622
জী 2255747
ad 2255149
थे 2254000
▁ढ 2253600
ब् 2253025
▁देव 2252803
യി 2248544
▁शुरू 2247373
▁झ 2246906
▁स्ट 2246565
▁ગ 2245488
▁நீங்கள் 2244711
ੀਆਂ 2244067
▁`` 2243867
▁সেই 2243052
ai 2242826
र्म 2242599
▁इम 2241739
▁بہ 2241196
▁চা 2240668
▁वर्ष 2239596
ાર 2239545
▁तीन 2239373
ৰে 2239054
▁can 2236614
सन 2235378
▁तुं 2234467
▁दर 2234444
▁मूं 2231827
ꯔꯕ 2231780
ম্ব 2230819
▁मू 2230287
شن 2229916
▁16 2228268
▁रहल 2227242
ാം 2226734
▁सर 2226580
▁ᱧᱟᱢ 2224284
দুনা 2223229
ᱚ 2223128
▁করতে 2221650
ء 2221625
ᱤᱭᱟᱹ 2221220
ਦੀ 2220993
ଜ 2219947
हरूलाई 2219937
ীৰ 2219881
ಟ್ 2217694
्यां 2217638
▁বে 2215898
▁मुझे 2214831
ꯥꯕ 2213772
ಿತ 2213323
ଯ଼ 2213237
▁निर्माण 2208454
▁sha 2208143
ାନ 2206777
▁কা 2204454
▁ନାହିଁ 2204391
ᱰ 2202152
्यो 2201111
ത്തി 2200833
▁ਭ 2199251
▁मोदी 2199217
ங்களை 2199195
▁... 2199085
ிட 2198815
ିକ 2197742
▁सान 2196846
ය 2196776
▁ꯌꯨ 2195424
▁ശ 2194471
▁nga 2194349
രു 2193860
ாள 2192997
▁ꯈ 2192172
त्र 2191352
▁l 2190365
▁ਚ 2189115
ంగా 2189096
లను 2187860
ꯂ 2187152
▁কৰি 2184233
ন্ 2181423
▁ق 2181147
जि 2180595
▁jing 2180462
▁ಜ 2180384
▁கா 2179847
ರೆ 2178001
▁ਜਾ 2177545
▁जाने 2176693
▁7 2176147
▁আমার 2174832
▁मह 2173798
▁گی 2173559
ঁ 2170679
▁వ 2168428
ரிய 2167736
▁সি 2167069
ಿದ 2166286
▁સં 2163296
ेर 2161702
▁ꯃꯁꯤ 2161516
▁यू 2161498
कों 2161165
ക് 2160610
ia 2160488
▁been 2159969
ଙ୍କୁ 2159465
▁छु 2159370
▁w 2158483
ap 2157747
ਏ 2157138
न्ति 2156331
▁हुनका 2155936
▁ᱵᱤᱨᱤᱫ 2154696
ிகள் 2154444
▁ᱟᱠᱟᱱᱟ 2154292
ज्ञ 2153220
▁काय 2153092
▁কৰিব 2152547
▁পৰি 2152157
पर 2151894
▁भाग 2150839
▁હતો 2150584
ूर 2150494
hi 2150406
ha 2149758
কি 2148735
▁ಒಂದು 2147036
மு 2146988
▁दोन 2145328
ೊ 2144869
ടു 2144572
▁பல 2143049
ക്കു 2142171
ਚ 2142119
दों 2141853
▁मेरी 2141377
نگ 2141243
▁ᱥᱮ 2141140
ૂ 2139297
ನೆ 2138777
श्व 2137950
▁ட 2136440
▁उसके 2136157
▁यहो 2134564
ുന്നു 2133578
▁ఇ 2132575
▁E 2131613
ੰ 2131372
▁મા 2131148
ਲੀ 2129632
▁ਪਰ 2128119
ಲ್ಲ 2126935
▁लि 2126704
்க 2126488
॥ 2123673
▁शहर 2122926
▁నా 2122300
▁BLANK 2121914
▁हु 2120717
ार् 2119632
पाक 2119345
ండి 2117513
▁ᱦᱳᱭᱳᱜᱼᱟ 2117084
मु 2115358
▁उत्तर 2115023
ारे 2114892
▁ᱯ 2113424
▁হবে 2113053
ಲಿ 2112724
▁வேண்டும் 2112099
▁এটি 2111042
▁F 2110898
ᱳᱨ 2110668
▁करू 2110612
ம்ப 2109560
જી 2109152
▁there 2108734
சி 2106901
স্ত 2105783
▁সু 2105658
▁तिनी 2104043
۔ 2100782
ꯥꯒꯤ 2100748
▁आफ्नो 2099742
ষ 2098810
লো 2098433
ಗಳಲ್ಲಿ 2097351
▁ᱜᱮ 2097120
▁एका 2096655
▁ଏହି 2096368
िट 2096058
▁भगवान 2095739
लां 2094535
▁प्रधानमंत्री 2094265
▁शब्द 2090194
नायनि 2088980
▁गेआ 2088214
j 2087434
वाद 2082644
ள் 2081689
ation 2081168
बल 2080771
ത്ത് 2080762
▁હતી 2080675
ুন 2080634
▁out 2080313
▁ᱛᱟᱦᱮᱸ 2077980
ുള്ള 2077041
ચ 2076340
▁डी 2075356
ंट 2074215
▁दू 2073341
▁ᱠᱟᱛᱮ 2070096
▁உள்ள 2068954
বদা 2068353
▁17 2068171
▁उन्होंने 2067669
▁মসি 2067245
▁ওইনা 2066379
ତା 2066308
▁शामिल 2066138
રો 2065844
▁ᱦᱩᱭ 2065692
▁करत 2065345
ர்கள் 2064994
re 2064874
▁your 2064430
▁ദ 2064404
ാവ 2063957
▁8 2062738
്യ 2062354
▁ᱛᱟᱭᱚᱢ 2062076
याः 2061076
्रि 2058699
▁उनके 2057673
▁હ 2057305
▁ರ 2057282
▁phi 2056631
প্ 2055615
ಂ 2055274
िए 2055198
▁मला 2055032
ꯞ 2054388
▁मंत्री 2052352
من 2052279
▁up 2051600
▁चि 2045311
் 2044691
ಿಸಿ 2043869
ॅ 2043805
ட் 2040829
▁चल 2040686
ੀ 2037787
ಾರ 2037199
తో 2037160
▁sh 2034320
▁ਤਾਂ 2031192
▁h 2030913
▁وہ 2029398
▁ଶ 2029384
▁उसे 2029123
णि 2028117
ꯗꯨꯅ 2027000
ेंट 2026768
▁ஆனால் 2026756
▁ਸ਼ 2026369
స 2026092
▁அல்லது 2025668
வில்லை 2025511
▁गे 2024804
ारी 2024183
▁ᱫᱷᱚᱨᱚᱢ 2024140
▁प्रकार 2022962
▁आपल्या 2021889
▁ତା 2020662
ꯐ 2020640
▁जु 2020210
▁ମୁଁ 2019906
हार 2018532
కి 2017989
▁ᱡ 2017336
▁छन् 2015880
▁भऽ 2014679
▁ପ୍ର 2013922
ꯥꯡ 2013856
न्त 2013039
டைய 2012977
▁செய்ய 2012635
▁y 2012008
ా 2011743
ਾ 2011471
▁ఎ 2011338
ꯗꯒꯤ 2011152
▁سہ 2010627
এ 2010382
ਗਾ 2008384
ொ 2007486
તી 2006900
▁होती 2006212
▁কিন্তু 2005724
ुल 2005630
লেন 2004776
▁don 2003203
یم 2002430
ম্ 2001869
▁কৰে 2000604
ꯕꯨ 1999152
ਰੇ 1998429
ꯣꯏ 1997164
▁વ 1996603
▁W 1995083
യാ 1994387
▁அவர்கள் 1993558
▁ᱴᱷᱮᱱ 1993200
la 1991673
▁ꯅꯠꯇ 1990992
▁તેને 1990273
క్ 1990182
ల్ 1989849
গুলি 1989625
▁केली 1987185
▁ஒ 1985222
r 1984923
▁હતા 1984899
ꯦꯛ 1982996
▁म्हण 1982106
▁दूर 1980635
▁ꯁꯤ 1979018
▁करण 1978402
ٹھ 1977379
꯭ 1976904
▁ವ 1976160
▁તેઓ 1975435
▁अर्थ 1975261
▁यु 1974912
ತಿ 1974898
ਥ 1973638
ंश 1973580
▁my 1972735
▁गर्ने 1972532
▁সম 1972261
▁ഗ 1971810
ᱮᱞ 1971392
್ರ 1971075
ꯁꯨ 1970572
रु 1969904
▁आग 1968470
ংবা 1968444
▁مےٚ 1968360
್ಯ 1967981
▁[ 1967065
ंगा 1965682
ᱫ 1964728
▁হে 1963982
▁भर 1962952
bho 1962304
ണം 1960699
ᱚᱜᱼᱟ 1959408
▁વિ 1958924
മാണ് 1958143
▁ᱧᱮᱞ 1957624
শিংনা 1956317
▁ति 1955372
ic 1954212
ది 1953895
ି 1952918
ীর 1952828
▁14 1952324
f 1951880
ड़े 1951704
▁করি 1951141
▁કરે 1949849
▁న 1949640
▁কথা 1948870
▁તેના 1948393
ದು 1947626
▁जात 1947112
▁आख 1946982
na 1946873
ꯑ 1945932
শিংদা 1945761
▁नी 1943043
ા 1942986
න 1941611
ಾಗಿ 1941556
▁ಇದು 1940855
শি 1940834
તો 1940501
تا 1939536
వు 1939339
▁पि 1937954
▁ꯃꯍꯥꯛꯅ 1937164
ತ್ತ 1937010
्ल 1936564
▁ऊ 1935185
ਲਾ 1934771
ாம் 1934466
ஷ 1934433
انی 1933639
ಿದೆ 1932407
▁shall 1932369
▁অম 1930783
ભ 1930342
ुन 1930245
लाय 1928698
▁ജ 1928526
त्त 1928229
▁पुर 1926697
খিবা 1926493
▁ಆಗ 1924998
▁ꯕ 1924844
▁रु 1923858
▁ஏ 1923088
▁करी 1922702
▁अपना 1921072
द्ध 1919561
S 1918480
ਨੀ 1918253
ष् 1918224
▁ہن 1917702
▁एम 1916685
▁do 1916514
▁अगर 1916324
़ 1916287
▁মরম 1916187
▁ᱵᱟᱨ 1915192
▁ਸੰ 1913179
पे 1912047
▁जों 1911887
୍ 1911386
્ય 1910707
ur 1910074
▁यत् 1906698
ोज 1906617
▁کن 1906536
▁आम 1906099
নো 1904197
ಂತ 1902957
▁9 1901718
▁ನನ್ನ 1900588
▁یوان 1899636
▁خدا 1897417
▁ᱦᱩᱭᱩᱜ 1896652
ꯍ 1896388
▁سو 1895564
ਡ਼ 1894675
▁તો 1894038
गत 1892921
▁کوٚر 1892104
কা 1890118
સ્ 1890103
▁people 1889702
▁লৈবা 1888947
ಡಿ 1888284
▁सभी 1887932
ખ 1887443
▁পী 1887407
▁वर् 1886995
ரை 1886494
ായി 1885938
▁उन्हें 1885488
▁ಎ 1885308
▁समाज 1882855
▁थियो 1880497
▁एवं 1879503
▁kh 1879304
▁رو 1877035
▁উপ 1876636
ᱩ 1876508
बर 1875512
▁फ़ 1873762
▁ꯂꯧ 1873140
্রে 1873050
▁جن 1872522
ിക്കുന്ന 1872102
ाली 1871972
▁ꯑꯣꯏꯕ 1870612
▁ಅವನ 1869806
ට 1869727
டை 1869207
▁تمام 1868708
▁गै 1868415
रू 1868383
▁মধ্যে 1868290
▁i 1867555
వి 1866860
▁ತನ್ನ 1863912
▁மா 1862686
▁ય 1861992
▁நீ 1861059
ില്ല 1858449
ുന്ന 1858304
le 1856810
00 1856262
നം 1854458
ව 1853263
▁पार 1852720
▁सकते 1851666
▁kiba 1851568
ாம 1851502
▁विशेष 1850768
▁सक 1849767
▁सः 1849348
ല്‍ 1849314
z 1849260
▁ಅಥವಾ 1847862
ांच्या 1846949
▁बेयो 1846734
ார்கள் 1846568
▁ᱨᱟᱡᱟ 1846044
id 1845483
హ 1843906
▁किस 1841401
ాల 1840257
ಿಸ 1840055
ਗੇ 1838663
ted 1837915
্রি 1837611
ವಿ 1837529
ന് 1837526
▁દ 1837051
▁स्त 1836921
▁యొక్క 1836560
டிய 1835738
▁भने 1834804
ുകൾ 1833352
▁ब्र 1833257
শা 1833217
▁నీ 1832601
▁ᱵᱳᱭ 1832224
دا 1831381
‍ 1830352
▁என் 1830320
▁ᱫᱚᱦᱚ 1829584
साठी 1828807
us 1828349
िस्ट 1827904
পি 1827639
ફ 1827047
▁ଯେ 1826146
▁লৌ 1826018
ot 1825585
ാര 1825478
▁she 1825168
▁ਤੁਸੀਂ 1824046
▁சி 1824030
▁करें 1823970
ാന 1823957
▁یتھ 1823825
ণ্ড 1823508
ක 1822285
ਾਈ 1821593
▁କରିବା 1820293
ng 1820270
▁विक 1819900
▁స 1819422
▁30 1818206
ার্ 1816504
▁শি 1816178
ꯁꯤꯡꯗ 1814940
▁सबै 1814413
ట్ 1814211
ிலிருந்து 1813207
গে 1812309
um 1811938
یہ 1811863
یک 1811398
ಿಸುವ 1811311
▁توھان 1810436
নের 1808998
▁பா 1808272
జ 1807798
▁विश्वास 1806437
▁अलग 1806102
ਿਆਂ 1806068
▁भे 1805638
ꯔꯤꯕ 1805020
▁ڈ 1801185
ᱱᱟ 1800828
ta 1800415
▁यहू 1799875
ബ 1799017
गर 1798878
द्व 1798047
तील 1797669
▁तँ 1797442
ম্না 1797237
ند 1796186
ٗ 1794744
ിയ 1794295
▁استعمال 1792276
▁स्थान 1792043
ᱡ 1790112
▁नोंनि 1789820
▁من 1789659
ಿದ್ದ 1789320
یں 1789256
गो 1787997
▁ꯅꯍꯥꯛꯀꯤ 1787996
▁ಮೇಲೆ 1787946
ᱟ 1787664
ग् 1787428
▁து 1786862
▁बिसोर 1786468
ಡ್ 1786313
ात् 1785779
▁سر 1785762
▁x 1785490
▁போ 1785422
োক 1784881
ାଇ 1784749
கு 1784619
প্র 1783376
ांक 1783254
ਿ 1783021
▁ಆದರೆ 1782451
ᱼ 1782184
▁ઇ 1781919
▁ہنٛز 1781632
ර 1781401
લે 1779873
▁ᱵᱤᱨ 1778652
▁आव 1778584
▁શું 1778250
▁શ 1777909
बि 1777280
یس 1776811
ক্ষ 1775741
ab 1775574
▁एह्दे 1775506
हो 1773780
െയും 1773631
োর 1773102
▁ٻ 1772034
▁ബ 1771672
ില്‍ 1771530
▁பி 1771029
▁ठ 1770570
ियां 1770428
ഡ 1770326
▁পৰা 1769892
▁પા 1769599
ਵਾਂ 1769079
▁अथ 1768998
धी 1768608
▁खालाम 1768369
▁सामान्य 1766974
▁રીતે 1765263
▁ಅವರ 1764495
ର୍ 1763601
▁करून 1763546
সে 1763314
▁इं 1762848
▁ꯑꯣꯏꯅ 1762160
ନ୍ 1762126
னர் 1762074
▁! 1761789
▁गण 1761743
-1 1761375
ణ 1761131
ाज 1760471
ದಿಂದ 1760301
▁राव 1759825
▁ਟ 1759362
ડી 1759266
▁দু 1758836
કો 1758198
ె 1757942
▁ঐহাক্না 1757337
पन 1756904
തു 1756106
▁ਕੀਤੀ 1755652
▁घे 1754613
ਸੀ 1753802
▁مون 1753587
▁হায় 1753151
▁ह्या 1752903
▁য়া 1752689
دار 1752611
▁सेत 1752268
▁leh 1751754
ꯏ 1751604
▁खातिर 1751543
ଟ 1751333
▁ಗ 1751225
▁चार 1750837
ല്ല 1750213
ತ್ 1749870
িন 1748839
ود 1748779
▁बोल 1748643
▁ٽ 1745882
▁मुख 1745644
वान 1745579
▁एस 1745385
▁ଜ 1744994
▁when 1744492
▁हें 1743336
ங்கள 1742475
▁म्हणून 1742434
ൾ 1742397
▁लगा 1742232
▁ਜਾਂ 1741834
થ 1741739
▁तस्य 1741083
▁ਦ 1740384
▁মু 1740371
ꯁꯤꯡꯅ 1740148
▁काही 1740007
رن 1740000
▁ని 1739932
▁ꯍꯥꯏ 1739608
▁ꯄꯨꯝꯅꯃꯛ 1739380
ꯥꯔ 1739328
ിക്കുന്നു 1739270
നെ 1739103
्वा 1738703
ᱱ 1738604
न्न 1738083
▁after 1735008
▁बेखौ 1734463
ts 1734147
▁ਜੀ 1733552
ங்கு 1733469
ਓ 1732703
ᱛ 1732000
दान 1731136
ച 1730973
▁মতমদা 1729597
ੁ 1729517
বী 1729381
▁নে 1729234
ୟ 1729074
▁ਉੱਤੇ 1728295
ست 1728202
▁हंद 1728111
▁સા 1726559
▁क्योंकि 1723995
ाग 1723613
नाथ 1723507
▁তারা 1723501
রবা 1722979
▁খু 1722372
▁सकैत 1722320
ന്ന 1721890
▁पळ 1720739
▁डि 1720466
ড় 1718898
▁ਫ 1718783
্ 1718734
ர்த்த 1718476
▁समा 1718042
मेंट 1717588
வா 1716826
డి 1716252
x 1716210
▁ꯔꯒ 1716044
▁गि 1715855
▁ᱟᱜ 1715728
് 1713611
ৃ 1713334
रण 1711717
▁ਨਾ 1711592
▁बढ़ 1710901
▁भा 1710390
il 1709427
स्क 1708669
ᱮ 1707976
ळी 1707839
▁ꯑꯦ 1707692
▁ꯖ 1706888
▁দে 1705573
▁समान 1705516
▁हमरा 1704956
▁पू 1704183
▁बस 1702908
ഴ 1702488
▁होगा 1702073
▁कारन 1701777
ਾਨ 1700303
ꯌ 1700280
মক 1699758
ंस 1699558
▁ᱱᱟ 1698864
ಟ್ಟ 1697411
▁we 1697395
et 1696891
▁ભ 1696780
▁तिम 1696155
▁ꯆꯠ 1695396
ꯊꯣꯛ 1693848
ाहरू 1692674
રે 1692097
ent 1690690
▁ನಿಮ್ಮ 1690665
ઇ 1690225
क्र 1689984
ଦା 1689587
▁शि 1688985
▁किंवा 1688104
लक 1688054
▁नव 1686717
न्द 1686303
▁অদুনা 1684208
લો 1683426
ro 1683216
▁ஊ 1683010
জন 1682114
न्ना 1682050
▁ᱮᱴᱟᱜ 1681904
▁پنھنجی 1681428
ಚ 1680549
ਲੇ 1680355
▁जीव 1680130
▁থা 1679803
▁गा 1679544
ch 1677374
▁25 1676322
▁என்ன 1675286
ᱽ 1674654
▁মো 1674342
▁छो 1673907
▁ٿی 1673856
કા 1673427
▁లో 1672890
▁भू 1672291
ರಿಯ 1671867
▁ڏ 1671224
▁(1 1671172
లి 1670510
▁ਵਿ 1670288
সা 1669791
ut 1669300
விய 1669104
▁তেওঁ 1668909
ද 1667651
▁ਦਿੱਤਾ 1665692
▁more 1664947
▁য়াম্না 1664366
▁रि 1664095
▁पवित्र 1662628
om 1662610
▁हात 1662392
▁ᱫᱟᱲᱮᱭᱟᱜᱼᱟ 1662264
णां 1662045
মান 1662031
▁ताका 1661853
▁पानी 1660051
▁गावनि 1659252
লৈ 1659235
▁चाहिए 1659095
ाइ 1658885
▁तुम्ही 1658632
▁ଇ 1658291
▁man 1657587
▁یم 1656931
యు 1656737
ꯗꯣꯛ 1655988
षु 1655681
ᱢ 1655596
ল্ 1655388
▁ᱴᱷᱟᱶ 1653692
ೈ 1652628
▁time 1652464
▁എന്ന 1652402
থা 1652162
▁बर 1652071
▁گو 1651678
ंदो 1651475
▁ژ 1651285
देश 1651207
▁ꯔꯥ 1650780
▁ಶ 1650561
▁संख्या 1650466
வர் 1650344
னு 1650246
▁सौ 1650087
ీ 1649796
गु 1649676
खी 1649298
▁غ 1648797
▁कयल 1647458
▁ꯌꯥꯝꯅ 1647448
ில 1646673
▁प्रयोग 1645542
▁– 1645312
ৰা 1645223
জা 1644986
▁தே 1644865
ంలో 1644154
▁કહ્યું 1644020
ଏ 1642942
▁লোক 1642754
र्थ 1642233
▁ફ 1641786
ान्त 1641567
▁ঘ 1640444
▁మీరు 1640391
ଲି 1640032
▁ठीक 1638104
चार 1636501
▁লে 1635998
ਟੀ 1635960
বোৰ 1635306
ਣਾ 1634692
▁पड 1633593
ter 1633533
ിക 1633366
োন 1633227
▁pyn 1631771
▁வெ 1631767
ٕچ 1630956
▁सू 1630934
റി 1630507
▁ଦ 1629075
▁(19 1628595
نا 1628376
em 1628095
ਭ 1627990
▁നീ 1627798
▁তখন 1626450
வர 1626335
್ 1626112
▁గ 1625422
ायो 1625224
▁ಚ 1625046
▁ꯒ 1624476
രം 1624007
ଖ 1623889
ਫ 1623708
▁आंनि 1623192
क्शन 1622984
सु 1622930
ப்பட 1622387
▁गर् 1622174
ूक 1621466
خ 1621198
াজ 1621065
▁ꯃꯔꯝ 1621008
ਾਰ 1620754
▁O 1619490
▁لیے 1619170
▁کرن 1618836
ઈ 1618577
धा 1618417
ாய் 1617470
ض 1617168
▁वर 1616943
▁ذ 1616530
ਧ 1616149
▁ನಿ 1615918
▁হায়না 1615639
▁ꯎ 1615488
▁وزیر 1615175
▁লা 1615045
றி 1614431
▁जिन 1613851
ବି 1613768
▁ꯔꯣ 1612872
ച്ച 1612781
▁ઉ 1612525
▁সময় 1612436
▁ꯍꯥꯏꯅ 1611176
▁جان 1610467
సి 1609918
▁ତ 1609343
ꯟꯅ 1609300
லி 1609103
▁एन 1608590
▁કોઈ 1607965
ꯉ 1607684
▁মখোয়না 1605970
पुर 1604860
▁দা 1604765
▁ਜਿਸ 1604653
▁ਦੀਆਂ 1604614
▁आधार 1604361
). 1603935
▁ర 1603583
▁चा 1603106
▁কৰিছিল 1602429
્ર 1599459
di 1599317
▁जंदा 1599093
▁کم 1598002
▁ਰ 1597765
▁about 1597525
▁ಹೇಳ 1597502
▁সা 1595543
ᱨ 1595072
st 1594649
▁वचन 1594543
হে 1593601
મે 1592818
क्त 1592562
▁प्रदेश 1591899
ు 1591883
ഭ 1591771
▁भारतीय 1590617
▁तुमच्या 1590109
v 1590049
জে 1589273
▁Lord 1588231
ପ୍ର 1587996
▁द्व 1587749
لس 1586602
ල 1585036
▁अशें 1584983
▁लाख 1584886
▁ھن 1584878
ꯄꯨ 1584804
▁ਖ 1583986
ൊ 1583651
ಪಡ 1583127
▁মখোয় 1581510
▁அறி 1581032
ज् 1580621
▁आए 1580254
▁आया 1579989
ढ 1579881
▁ஹ 1579333
ুক 1579191
ಕ್ಷ 1578306
▁पता 1578301
▁बाल 1577792
ವರು 1577657
ත් 1577506
▁लो 1576764
▁ᱟᱢᱟᱜ 1576280
்த 1576252
ധ 1575514
ାରେ 1574611
▁ਲ 1574450
हु 1574358
▁ꯊꯕꯛ 1573648
▁नै 1573457
▁শ্রী 1573148
▁विज्ञान 1572879
▁মী 1571667
▁પછી 1571546
▁सै 1570912
യോ 1570218
▁ᱪᱮᱫ 1569472
कृत 1568879
ಲ್ಲಿ 1568738
▁ꯃꯐꯝ 1568564
ో 1568332
▁છો 1567658
టి 1567312
▁என்ற 1567160
▁no 1566450
▁ছিল 1566213
▁پن 1565295
▁ସହିତ 1565134
▁હતું 1564157
ാക്ക 1563477
▁মি 1563084
▁प्रेम 1562290
▁first 1561652
▁রাজ 1560953
ꯥꯛ 1560892
▁చే 1560502
న్న 1559659
▁ꯃꯟꯇ 1558620
ियें 1558578
ବେ 1557760
ிலும் 1557539
ంద 1557373
un 1557329
രാ 1556416
▁संग 1556410
दर 1555917
्त 1555821
াৰ্ 1555165
पि 1554492
ভাবে 1554196
ಂಗ 1553918
ടി 1553306
▁ᱵᱟᱰᱟᱭ 1553056
ानाय 1551999
▁ପରି 1551997
▁బ 1551697
یت 1551247
ਤਰ 1550486
▁पाह 1549915
ഡ് 1549634
చ 1549414
ant 1549401
▁ᱦᱟᱛᱟᱣ 1549076
ನ್ನ 1549021
▁सिंह 1548829
দবা 1548262
▁মর 1548044
▁ஜ 1547790
▁बाय 1547118
ધ 1545257
ص 1544204
ക്കും 1543933
▁ના 1542794
▁চৎ 1542334
ak 1541704
▁निर् 1541328
ᱚᱞ 1540972
▁নহাক্কী 1540595
وس 1540126
▁ꯃꯤ 1539636
න් 1538816
▁છું 1538803
▁ووٚن 1538724
▁ऑ 1538294
திய 1538229
▁ਬਹੁਤ 1538083
▁ꯁꯥ 1537856
▁মখোয়গী 1537602
▁त्याच्या 1537311
ᱶ 1536588
)। 1536179
▁प्रत्येक 1535321
,000 1534855
ٚ 1534722
▁ഭ 1534505
▁ଯାହା 1534092
ాడు 1533169
▁थो 1533005
ளை 1532713
▁ꯃꯇꯨꯡꯗ 1532672
छन् 1531962
▁मम 1531141
ଲା 1530951
र्त 1530022
ಂದ 1529797
▁ᱮᱥᱮᱨ 1529664
▁مو 1529435
▁पूरा 1528605
ੱ 1528320
कु 1528174
▁so 1527985
ਦਰ 1527946
▁गरे 1527714
▁अर् 1526804
▁शरीर 1526182
▁হৈছে 1525606
▁হা 1525562
ᱞ 1525108
चित 1524819
வத 1524800
ᱚᱱ 1524656
▁लु 1524607
िला 1524474
ரா 1523718
बाय 1523219
▁other 1521623
पण 1521601
దు 1521094
िये 1520590
▁नु 1520152
▁प्रमाण 1519788
ત્ર 1518370
▁तुसें 1518120
ोरनि 1517578
بر 1517570
▁കു 1517114
च्छ 1516012
▁ఇది 1515767
▁मिस 1515385
ate 1515250
D 1514424
ണ്ട 1514040
▁آهي 1513759
தை 1513714
ମ୍ 1513259
कां 1512889
ھو 1512855
▁31 1512491
نس 1512267
▁कॉ 1511512
▁तयार 1510966
શે 1510823
▁ঐ 1510554
ଭୁ 1510546
வில் 1510179
গু 1509053
▁ਹਾਂ 1508560
▁ଏହା 1507949
▁ಕು 1507910
ਆ 1507882
డ్ 1507505
▁वापर 1507401
▁پتہٕ 1507300
एस 1507220
▁प्रधान 1506898
▁త 1506880
لو 1506714
▁આવે 1506110
ज्ञा 1505727
أ 1505640
▁દ્વારા 1504916
▁ച 1504866
▁It 1504679
▁करियै 1504261
▁पो 1503898
லாம் 1503275
▁বল 1503261
ꯡ 1502700
िल् 1501679
▁খুদ 1501660
ٹی 1501421
िनो 1501035
ರಿಸ 1499098
▁सिर 1498867
▁थिए 1498533
ত্ত 1498415
▁बंद 1498263
ᱩᱱ 1497572
▁ویو 1496630
ాలు 1496488
▁ज्या 1495694
ल्स 1495479
▁ᱤᱧᱟᱹᱜ 1495472
▁ર 1495412
টে 1493604
▁मदद 1493160
न्ट 1491859
▁औ 1491400
▁ᱟᱠᱟᱱ 1490140
▁ਜ 1489885
A 1489728
▁ᱥᱚᱫᱚᱨ 1489100
▁ہی 1487879
राव 1487478
man 1486650
તિ 1486164
▁V 1485982
षण 1485471
▁পো 1483646
ਹੋ 1483411
ନା 1482829
▁سی 1482765
▁छि 1480925
▁दित्ता 1479823
▁ᱦᱚᱸ 1479764
oh 1479755
য়েল 1479396
ಂತೆ 1479353
ਖ 1479238
▁انھن 1478918
▁تو٘ہہ 1478300
اری 1478152
▁મને 1478137
ath 1478091
ూ 1478028
श्य 1477840
ಂಡ 1477416
▁ਸਾਰੇ 1475930
▁تۄہہ 1474564
▁ताकि 1474144
▁വാ 1473497
ul 1473119
▁ری 1473003
اس 1472638
▁ঈশ্বর 1472458
ങ്ങള 1471842
دو 1471771
खे 1470989
▁ఉన్న 1470190
சு 1469857
▁पिता 1469724
▁نی 1469697
▁ꯈꯪ 1469688
ବା 1469127
రా 1468869
ઝ 1467841
ുകയും 1465582
▁पाप 1465576
த்திற்கு 1464328
▁इसके 1464199
▁da 1463357
▁ର 1463320
कडे 1463073
?" 1462681
രിക്ക 1462540
लनि 1462263
▁शे 1462223
▁اہ 1460285
▁वो 1459885
▁او 1459779
ꯨꯡ 1459364
ment 1459093
ੌ 1459075
ಿಸಿದ 1458324
ou 1457681
▁फिल्म 1457291
▁मार्ग 1456847
ंब 1456028
ଟି 1455980
▁यस 1455566
▁ꯃꯈꯣꯏ 1455536
્રા 1455155
▁केला 1455104
सँग 1454843
▁two 1454114
▁آس 1453962
మైన 1453818
▁मुख्य 1451667
▁बड़ा 1451453
▁तेरे 1450400
ٹر 1450096
▁तिमी 1449894
▁मानिस 1449055
▁होग 1448336
प् 1447269
ئ 1447264
▁తన 1446697
▁50 1446514
▁અથવા 1446447
ಷ 1445198
▁over 1445192
▁प्रमुख 1445038
▁राह 1444781
ੈ 1443295
থি 1442947
વે 1441654
▁শে 1441376
▁बिनि 1441325
ৱা 1441126
▁सबसे 1440265
▁जायो 1439220
লক 1439080
▁মহাক 1438425
▁ਸਨ 1438059
ꯦꯁ 1437904
ੂੰ 1437753
▁சில 1437561
▁ᱴ 1437368
ന്മാ 1436778
োম 1435869
▁মতম 1435087
▁पुलिस 1435061
ew 1432630
▁करबाक 1432601
▁hi 1432552
യെ 1431288
▁മു 1431122
▁نہیں 1431064
▁মফম 1430876
▁जेको 1430744
▁पुत्र 1429712
▁कृते 1429696
▁ح 1428958
ਸ਼ਨ 1428591
ন্নবা 1428349
▁કરવામાં 1428225
वास 1427738
▁চি 1426568
▁धर्म 1426323
ᱰᱤ 1425888
ක් 1425645
र्ड 1425135
ైన 1424763
यं 1424475
চা 1424376
பி 1424199
▁তাই 1422752
▁24 1422153
▁पूण 1422110
▁அந்த 1421661
▁இருந்த 1421612
ମ୍ଭ 1421450
▁समूह 1421130
पु 1419908
ᱴᱤ 1418408
ভু 1418044
est 1417950
▁अनेक 1417737
▁विश्व 1417654
▁जिसलै 1417555
▁ٲس 1417122
▁परम 1416952
▁कडेन 1416527
ہہ 1416452
مان 1416224
▁रूपमा 1416197
▁सभिनी 1416036
കൾ 1413935
▁ꯐꯪ 1413492
▁फो 1413314
ल्ल 1412886
▁খঙ 1412878
▁प्रदान 1412493
बू 1412488
▁उद 1411892
▁into 1411746
▁যদি 1411639
ತೆ 1410716
▁ꯑꯗꯨꯗ 1409732
ांना 1409307
ారు 1409218
▁अहं 1409049
▁मानव 1408379
വാ 1408108
গত 1408099
ੜ 1407682
▁पूर्ण 1406443
▁ia 1406270
▁जां 1406030
ಗಳಿಗೆ 1405884
▁வரு 1404698
▁उठ 1404225
▁महिला 1403351
▁ध्यान 1403239
▁ꯄꯨ 1402976
लं 1402934
os 1402528
டன் 1401958
▁तरी 1401939
yn 1401816
ଥ 1401663
▁भवति 1401492
▁পরি 1401436
ற்று 1401346
ଷ୍ଟ 1401239
▁ঙ 1400700
▁ಭ 1399013
▁கட்ட 1398900
▁हेर 1398538
'' 1398503
હો 1397935
सार 1397018
ग्र 1396941
▁r 1396619
ूल 1396584
▁छा 1395195
ोट 1395040
ਂ 1394378
▁ᱩᱭᱦᱟᱹᱨ 1393904
▁तपाईं 1393828
P 1393668
ꯧ 1393660
ತ್ತು 1393416
பு 1393320
▁किश 1392090
সু 1392029
ৰণ 1391869
கிறது 1391806
▁गुबुन 1391443
▁उनी 1390856
▁दुनिया 1390849
ியின் 1390835
ूप 1390760
ನಾ 1389948
▁फ्र 1388831
▁পারে 1388438
निफ्राय 1387724
ন্না 1387648
▁kum 1386965
ವರ 1386310
▁ꯃꯆ 1385864
्न 1385274
▁जर 1385165
▁કર 1384679
र्ग 1384586
im 1384429
ठी 1383865
વામાં 1383781
ਾਲ 1383660
દા 1382999
▁आता 1382985
ळा 1382846
▁আপনি 1382813
▁مل 1381774
தாக 1381572
లా 1381184
ਜਾ 1380974
▁इतिहास 1380843
▁তাঁর 1380791
▁व्यक्ति 1380525
यर 1379857
▁ꯃꯇꯝ 1379824
▁ᱟᱭ 1379240
िक्स 1378779
▁सोर 1378198
▁ટો 1378131
▁ਕਿਹਾ 1378013
ତି 1377879
▁தீ 1377796
▁जेह्ड़ा 1377268
ஞ்ச 1376780
▁অনু 1376667
▁প্ৰতি 1376563
పు 1376184
▁সাথে 1375616
▁e 1375013
ியை 1374782
sh 1374403
ங்களில் 1374025
▁کي 1373972
▁ওইবা 1373823
▁Tom 1373772
ᱛᱮ 1373484
▁मिगी 1373375
20 1373106
▁ਹੀ 1373104
▁नाय 1372988
ਵਾ 1372641
অ 1372494
ढ़ 1371365
▁ଧ 1371287
োই 1370879
▁हल 1370337
लु 1370132
ঙ্গ 1369202
తి 1369035
ક્ષ 1367981
మ్ 1367719
▁ஓ 1366910
ಿಂದ 1366795
▁মসিগী 1366767
▁उच्च 1366601
दन 1366443
▁প্রতি 1366126
▁অদুবু 1366052
निय 1365913
▁یہٕ 1365712
മി 1365552
▁ਰਾਜ 1364211
uh 1363585
त्या 1363207
ഷ 1362613
चर 1362275
▁ਕੀ 1361995
▁چیو 1361991
ھا 1361961
▁ᱞᱮᱠᱟᱱ 1361140
ଷ 1360779
ଯ 1359819
▁ನಿನ್ನ 1359699
▁ല 1359450
▁എന്റെ 1359265
स्थ 1358911
வர்கள் 1358435
▁भविष्य 1357847
খ্রে 1357432
তিক 1357042
▁করার 1356874
▁அது 1356578
▁त्याला 1356501
▁मोजां 1356081
▁रामच 1355776
▁ऑफ 1355592
ਖਿਆ 1354969
▁मर 1354541
राज 1354529
ରି 1353439
▁जाइत 1352931
त्य 1352779
▁ام 1352506
▁ഇത് 1352388
▁पूरी 1352332
▁ᱜ 1351812
▁ال 1351608
▁కూడా 1351369
ிக் 1351250
বদি 1350945
▁ഓ 1350509
भा 1349501
स्प 1348900
ിലെ 1348405
प्रभु 1347835
ঘ 1347306
▁लिया 1347265
▁আপুনি 1347022
I 1346491
ڏ 1345823
▁सासे 1345591
▁तुमी 1344111
ിന 1343978
୍ର 1343385
▁சே 1342948
ಿಲ್ಲ 1342213
ᱜ 1341996
बार 1341839
ংদা 1341626
▁nong 1341561
सम 1341505
ிற 1341342
▁അത് 1340834
▁ವಿ 1340810
▁بھی 1340139
মদা 1339588
▁ओर 1339333
▁ਜਦੋਂ 1339323
ᱤᱭ 1338940
ꯦꯠ 1338428
▁শু 1338052
▁সমস্ত 1337436
▁ସମସ୍ତ 1336522
হন 1335849
▁দিয়ে 1335539
▁ꯃꯇꯝꯗ 1335516
ோத 1335393
▁like 1335390
▁అని 1335321
ꯣꯜ 1335160
ப்படு 1335080
▁मेळ 1334828
ன்ற 1334781
▁अनुसार 1334313
▁कोनो 1333609
ಂಬ 1333428
ꯣꯛ 1333272
ण्या 1332827
जु 1332772
▁പറഞ്ഞു 1332760
▁કરવા 1332722
োং 1332595
▁ইন 1331811
ിപ്പ 1331274
न्द्र 1330545
ine 1330057
▁അവർ 1330049
کی 1329625
▁its 1327627
▁ଦ୍ୱାରା 1327416
▁मुदा 1326011
▁ꯃꯄ 1324960
▁વા 1324688
▁તેની 1324026
▁ড 1323804
ించ 1323474
▁ಕೊ 1323374
ಳು 1321872
▁जैसे 1320595
ꯥꯝ 1319924
ి 1319917
▁तेव्हा 1319721
▁ᱢᱮᱱᱠᱷᱟᱱ 1319272
ସ୍ 1319254
▁মৈ 1318669
ol 1318551
▁इत्यस्य 1318433
ട്ടി 1318293
▁ᱪ 1318004
்கள் 1317902
▁पृथ्वी 1317363
ন্ট 1317258
▁இட 1317057
▁அப்ப 1317019
ाक 1316652
▁ഒ 1315372
જા 1315342
▁ప్ర 1314683
য়ন 1314539
▁આપ 1313413
્યું 1313381
▁ꯑꯣ 1313252
▁इस्तेमाल 1312999
▁જ્યારે 1312408
▁त्यांच्या 1312397
ᱮᱱ 1312100
▁प्रा 1311929
▁జ 1311653
▁બે 1311492
ാമ 1310879
ਕਾ 1310812
റ്റ് 1310751
में 1310555
▁ବା 1309875
▁ହ 1308874
▁ओकरा 1308850
▁تمن 1308664
▁कोल 1308555
▁وقت 1307621
ற்க 1307226
▁فر 1306822
ஸ்த 1306737
నా 1306602
માંથી 1306453
▁ଆପଣ 1306408
க்கி 1306174
▁কারণ 1306022
▁would 1306000
▁बदल 1305771
ੁਰ 1305503
ವೇ 1305041
फोराव 1304912
▁देने 1304901
▁ᱢᱟᱨᱟᱝ 1303428
▁তোমার 1303062
▁असे 1302666
▁সহ 1302477
▁बुंदोंमोन 1302362
▁st 1302142
ংশ 1301752
▁ꯁꯦꯝ 1301044
▁बाहर 1300613
ଚ 1299893
ক্স 1299880
قی 1298513
ঞ্জ 1298315
▁ഹ 1297692
▁হয়ে 1297614
▁સ્ 1297469
▁ᱠᱚᱢ 1297448
ꯥꯎ 1297292
ଅ 1296929
സി 1296641
কেল 1296625
▁कप 1296413
▁मध्य 1296281
ൈ 1296245
▁உங்கள் 1296238
▁أمس 1296188
▁सामाजिक 1296011
ન્ 1295891
▁ᱯᱮ 1295876
▁गोनां 1295873
▁वी 1295311
▁ସେମାନେ 1295118
धार 1295004
ଣ୍ଡ 1294634
ꯁꯟ 1294432
▁म्हाका 1293755
▁our 1293003
▁दिव 1292967
▁ఏ 1292691
▁तखन 1292576
ಧ 1292521
ೆಯನ್ನು 1291621
ക്ഷ 1291378
▁جیڪو 1291308
ମାନଙ୍କୁ 1290933
▁अंत 1290590
▁परमे 1290462
▁जारी 1290382
▁re 1290369
ಾವ 1290302
▁हूं 1289715
▁દે 1289544
ಿಸಲು 1288835
▁हजार 1288751
ਵਾਹ 1288730
▁ভাল 1288081
ꯕꯤ 1287967
સા 1287813
▁ꯊꯝ 1287320
▁सार 1287112
▁ꯃꯈꯣꯏꯅ 1286256
ꯛꯇ 1286044
▁گھر 1285664
▁ᱢᱩᱲᱩᱫ 1285368
▁যায় 1284578
▁India 1284409
▁કારણ 1283799
ਆਂ 1283708
▁অসিদা 1283544
▁अब्ला 1283428
▁इसे 1283072
ನಿ 1282549
ரோ 1282533
▁ல 1282360
ਅ 1281801
▁लै 1280962
▁धेरै 1280501
ழு 1280475
▁ꯑꯗꯨꯅ 1280436
फे 1280131
▁ꯃꯈꯣꯏꯒꯤ 1279864
म्प 1279839
▁सारे 1278896
▁सांगलें 1278814
▁ni 1277541
▁सांग 1277046
▁કો 1276992
▁बहु 1276933
ꯐꯝ 1276760
▁پنن 1276060
ত্ 1275924
োর্ 1275628
রের 1275254
ವೆ 1275194
▁സി 1274937
▁ong 1274843
ത്തിന് 1274695
▁থবক 1274252
کہ 1274030
▁نو 1273863
ାସ 1273407
ष्ठ 1272459
▁શકે 1272215
▁چھس 1272190
▁கொண்ட 1272060
ാപ 1269689
യാണ് 1269226
▁मेरा 1269120
నే 1269117
ُ 1268763
▁दिल्ली 1268503
▁तव्हां 1268309
তী 1268125
ंदी 1267896
রণ 1267526
▁செய்த 1266793
▁ତାହା 1266768
وی 1266570
▁माझ्या 1266409
▁କିମ୍ବା 1266351
▁ನಾವು 1265846
▁एबा 1265793
aw 1265767
▁कहल 1265489
▁राख 1265358
E 1265041
▁कमी 1265037
▁नाथाय 1264158
▁ओहि 1263805
ાવ 1263689
▁if 1263666
బ 1263662
ாவின் 1263047
▁হায়খি 1261603
▁ꯊ 1261548
▁వారు 1261441
▁কয়া 1261251
ꯂꯕ 1260572
▁मध्ये 1259865
▁वधीक 1259406
30 1259358
ல்ல 1259158
त्मक 1258760
▁लक्ष 1258648
கள 1258584
▁ਉ 1258476
▁जल 1258325
ᱯᱷ 1258108
న్ని 1258007
ꯥꯗ 1257936
▁ज्ञान 1257792
ਇ 1256983
▁100 1256596
▁ঈ 1256537
▁चड 1256489
િયા 1255555
▁ഉ 1255434
▁دی 1255256
▁ଉପରେ 1255178
▁एल 1254823
▁ନି 1253876
ুল 1253639
▁ଭାବରେ 1251828
▁ꯍꯥꯏꯈꯤ 1251732
▁ප 1251576
▁आदमी 1251564
▁ਮੁ 1251534
लय 1251302
▁परत 1250985
ൺ 1250581
▁प्रभ 1250349
भाव 1250288
▁छलाह 1250220
த்திர 1248947
तर 1248321
र्न 1247400
▁ঙা 1247210
ವಾ 1246993
होस् 1245762
▁زمین 1245752
کھ 1245651
▁کھ 1245391
ிருந்த 1244964
▁ফং 1244651
▁टा 1244406
ৰৰ 1244248
▁आइ 1243644
▁ଭ 1243644
M 1243432
▁ਗਏ 1243360
▁یو 1243202
یات 1243193
▁कहीं 1242136
ர்க்க 1241759
ത്തു 1241599
▁असां 1241485
▁સમ 1241456
बै 1241357
▁সকলো 1241273
ಕ್ಕ 1241070
▁ನಂತರ 1240910
▁അവൻ 1240824
▁కా 1240292
ార 1240220
▁தலை 1239585
িয়ে 1239516
▁கால 1238738
▁சா 1238575
▁अर 1238567
▁लेई 1237896
▁त्र 1237869
ٛ 1237460
▁अध 1237414
▁प्रे 1236482
▁ಟಾ 1236407
▁কিছু 1236361
▁सात 1236034
▁অপ 1235932
ڙ 1235668
ونہٕ 1235648
▁مر 1235453
ھی 1234671
▁मार् 1234172
ᱣ 1233596
ષ 1233420
ಾರ್ 1233354
▁আই 1232345
ിയുടെ 1232267
▁കാ 1232018
্যু 1231876
▁अध्ययन 1231798
ண்ண 1231476
▁प्रधानमन्त्री 1231221
▁व्या 1230914
▁ᱡᱟᱦᱟᱸᱭ 1230312
हन 1230094
▁नङा 1230084
▁पढ़ 1229348
ेक 1229226
▁ನಮ್ಮ 1228919
ந்திர 1228365
▁आपको 1228173
▁] 1227503
▁any 1226870
he 1226667
▁समस्या 1226430
▁কাছে 1225450
▁ri 1225408
मिक 1225136
▁ᱟᱭᱢᱟ 1225028
▁ᱟᱡᱛᱮ 1224892
▁তুমি 1224888
▁مع 1223904
▁ᱦ 1223576
▁छोड़ 1222043
ल्यान 1221890
▁تر 1221551
▁जाते 1221382
▁வர 1221348
ाती 1221295
▁तुम् 1221152
▁गाव 1220732
▁ଚ 1220529
▁पैदा 1220226
▁యె 1219892
▁రా 1219716
▁जग 1219674
ాయి 1219410
ସ୍ତ 1219259
▁నుండి 1218847
ुट 1218514
▁प्रो 1217532
ث 1217349
নৰ 1217299
ாடு 1217141
ങ്ങളും 1216833
खि 1216484
চে 1215800
ांची 1215106
जर 1215063
▁वन 1214977
▁परिवार 1214952
▁చ 1214733
୍ରା 1214484
ٿ 1214397
ियान 1213003
த்திய 1212593
▁நி 1212490
▁ಕರ್ 1212414
▁మీ 1212213
▁आशिल् 1212040
▁lo 1211878
▁പി 1211526
ज्या 1211084
▁ಸಮ 1210209
▁ராஜ 1209909
▁ꯈꯨ 1209808
▁ऐसा 1208936
▁दौरान 1208713
ியில் 1208702
▁அதை 1207659
▁તેમના 1207574
జీ 1207567
शास्त्र 1207193
ियुनि 1206840
ীন 1206176
▁આવી 1206064
ट् 1205868
ಬೇಕು 1205742
▁എന്നു 1205672
ਿਤ 1204949
▁हूँ 1204854
ാൽ 1204739
उन 1203982
ത്ര 1203720
▁21 1203504
శ 1202586
एल 1202391
सू 1202100
▁با 1202062
▁લોકો 1202028
▁ಎಲ್ಲಾ 1201954
నం 1201778
▁कल 1201665
▁دو 1201435
ক্ষা 1201348
▁ꯠ 1201048
ையின் 1200931
▁লোয়ননা 1200899
▁ꯑꯩꯒꯤ 1200812
▁शिव 1200329
▁di 1199934
▁ખ 1199791
छु 1199699
ni 1199511
▁लाग 1199277
50 1199210
▁જા 1199124
ಲೆ 1198876
▁హ 1198823
वादी 1198084
▁ट्र 1197349
▁ਧ 1197247
ंप 1196960
▁ਸੁ 1196586
▁ਜਾਣ 1196514
ாலும் 1196462
▁वरीय 1195966
دٕ 1195720
▁त्यांना 1195382
▁जाव 1195241
▁মোৰ 1194417
ꯕꯒꯤ 1194252
▁देखा 1194062
▁ମୋ 1193679
▁ଯ 1193186
▁पाठ 1193140
▁जाती 1192974
ಿದ್ದಾರೆ 1192694
▁परिणाम 1192264
▁पण 1192209
▁एक्स 1191688
▁तुमकां 1190943
ස 1190627
ry 1190092
▁হৈ 1189973
ટી 1189912
ഹോ 1188901
C 1188571
▁ꯃꯁꯤꯒꯤ 1188544
ज्ञान 1188464
▁আমরা 1188340
દ્ધ 1188234
▁আছিল 1187865
વું 1187861
ਜੀ 1187715
ற்ப 1187660
▁یی 1187519
▁તેથી 1186977
ক্ষণ 1185703
ાય 1185450
▁সৈতে 1185004
او 1184810
T 1184275
▁ৱ 1184218
▁ਕੋਈ 1184203
▁उनकी 1184092
রিবা 1183838
▁য় 1183749
▁साव 1183472
▁এর 1183301
▁Ma 1183140
▁પરંતુ 1182736
ক্কী 1182371
చి 1181800
ട്ട് 1181766
▁ਸਿੰਘ 1181246
si 1180310
▁थमां 1180258
ভি 1180080
ార్ 1179785
▁नामा 1179760
▁मूल 1179635
ದೆ 1179527
▁ઘ 1179484
▁കാണ 1179350
வாக 1178473
▁लागून 1178403
▁કરો 1178373
▁This 1178047
ਮੀ 1177628
▁गोसो 1177285
िथ 1177195
ಾಮ 1177025
ాయ 1176608
▁ꯇꯧꯕ 1176608
रें 1176236
mag 1176088
▁तेम 1175771
▁اگر 1175525
ವಾಗಿದೆ 1175514
न्तु 1175234
▁स्वास्थ्य 1174494
▁पोइ 1174280
ిన 1174196
▁सेहो 1174137
▁تھا 1174094
ালে 1173807
▁ᱢᱩᱪᱟᱹᱫ 1173616
▁आवश्यक 1172979
▁ꯊꯥ 1172780
ണി 1172707
▁पक्ष 1171971
ப்படும் 1171377
R 1171270
▁जाना 1170750
▁ଏ 1170734
ക്കുന്ന 1170395
▁हिन्द 1170276
मै 1170104
▁हमर 1169897
▁ڊ 1169808
ൃ 1169743
O 1169383
چھ 1169307
▁اسان 1169297
▁ली 1168949
ਿਸ 1168942
டிக்க 1168926
▁મારા 1167708
ï 1167632
جو 1167289
▁ᱫᱟᱲᱮᱹᱭᱟᱜᱼᱟ 1167232
▁लाभ 1166993
▁ಉ 1166741
ડા 1166725
ೆಯಲ್ಲಿ 1166510
ମେ 1166339
▁পে 1165967
নী 1165008
াত 1164797
▁ꯌꯦꯡ 1164680
غ 1163720
-- 1163349
▁ch 1163330
▁अपि 1163227
ঙো 1163209
▁ᱢ 1163140
▁अभि 1162855
▁कीती 1162699
▁സം 1162203
▁तें 1162059
▁गोबां 1162038
യില്‍ 1161458
▁କରେ 1161374
ങ്ങള്‍ 1161333
ේ 1160840
▁آھن 1160442
▁ما 1159370
లకు 1159324
▁കോ 1159303
▁ᱫ 1159270
ातील 1158882
යි 1158554
ಂದು 1158315
▁கண 1158281
▁याद 1157974
మా 1157379
▁आवश्यकता 1157289
▁பே 1157232
ంది 1157023
ഫ 1156672
ଉ 1156455
ক্তি 1156158
তো 1155777
ರುವ 1155704
▁ਦੁਆਰਾ 1155384
▁بھ 1155358
নিক 1154435
டுத்து 1154254
▁करतात 1153991
ल्ड 1153944
தா 1153569
▁લ 1153399
ग्रा 1153357
लन 1153309
▁بچ 1153041
ছি 1152694
▁ಸು 1152404
▁uba 1151949
▁તમારા 1151917
▁முதல் 1151907
▁نا 1151649
ꯒꯠ 1151504
ड् 1151317
▁day 1151100
বো 1151023
▁इन् 1150995
▁काल 1150953
▁মমা 1150746
▁new 1150738
▁ꯂꯣꯏꯅꯅ 1150556
▁ચ 1150348
ష 1150267
▁प्रभाव 1150157
بل 1150083
دس 1150037
ांचे 1149838
▁জন 1149754
▁ताणें 1149369
▁करदे 1148489
ಮಾ 1148467
ಾರಿ 1148180
▁ꯑꯗꯨꯒꯤ 1148036
▁जानकारी 1147998
▁परैंत्त 1147468
▁सन्ति 1146800
ਕਾਰ 1146154
ட்ச 1145779
शू 1145709
नाया 1145312
ाम् 1145307
▁করেন 1144711
ଭ 1144595
ट्ट 1143742
ip 1143212
கம் 1142303
களில் 1141695
▁then 1141293
▁ધ 1141293
ஸ 1141100
निया 1140806
▁ම 1140731
દી 1140543
▁மிகவும் 1140342
ழி 1139754
രിക്കുന്നു 1139665
▁ಮು 1139137
▁ಒ 1139130
▁ᱥᱮᱨᱢᱟ 1138432
▁மேலும் 1138354
▁தொட 1137799
▁ꯌꯨꯝ 1137280
फो 1137097
▁पय 1136972
▁હોય 1136876
சிய 1136772
▁ਮੰਤਰੀ 1136626
▁briew 1136616
▁1. 1135472
पित 1135339
▁ਤੱਕ 1135108
▁नगर 1134979
▁রি 1134559
▁पइठ 1134379
ನೆಯ 1134283
▁करणु 1134050
▁ల 1134020
▁வீ 1132985
ಫ 1132276
ജി 1131593
સ્ટ 1130534
ാത്ത 1130429
▁நா 1130353
ꯂꯤꯕ 1130304
▁आसीत् 1130034
ئی 1129814
▁बिना 1129191
▁हायो 1129120
▁இல்லை 1128884
▁ꯔꯕ 1128812
▁जेब्ला 1128754
▁আন 1128196
▁چھو 1127496
್ಯಾ 1127133
मनि 1127002
▁گا 1126233
डो 1126167
னி 1126115
▁made 1126109
▁केंद्र 1125895
ില 1125484
ತನ 1124226
▁ᱵ 1122600
▁శ 1122518
▁થઈ 1122233
ন্দা 1122199
ரின் 1121443
യ് 1120653
▁ਕੁਝ 1120574
▁மூலம் 1120281
▁केह् 1120072
यन 1119859
কার 1119312
லில் 1119005
एम 1118794
▁व्य 1118720
ꯍꯟꯕ 1118696
▁Trai 1118633
▁নিয়ে 1118598
▁வந்த 1118409
▁ಶ್ರೀ 1117972
▁माल 1117123
▁நோ 1116882
▁ور 1116718
▁இத 1116322
▁কৰিবলৈ 1116195
▁than 1116008
▁& 1115952
ਵਰ 1115888
ꯇꯔ 1115864
▁Y 1115488
▁අ 1115292
ve 1115067
▁न्याय 1114920
▁ಸಹ 1114610
▁दुख 1114108
ંગ 1113852
▁against 1113806
न्छ 1113674
ਕੀ 1113375
ත 1113308
કાર 1113184
इड 1113158
▁కో 1112434
ମା 1112314
▁करदा 1112182
▁ತಮ್ಮ 1111984
ᱵᱷ 1111940
▁ਪਾ 1111506
▁ᱫᱤᱥᱚᱢ 1111412
ೆಗೆ 1111147
▁மோ 1110761
▁ਜਾਂਦਾ 1110654
▁only 1110615
op 1110597
ুনা 1110549
▁खूब 1110389
മ്പ 1110304
चन 1110302
ലി 1109947
▁تام 1109185
▁ਡ 1108818
व्य 1108555
▁வே 1108404
ਗੀ 1108347
ce 1108336
ப்படுத்த 1108244
▁ٿا 1107822
▁ஐ 1107795
▁खोज 1107647
ത്തില്‍ 1107149
▁তোমা 1107055
▁سنٛد 1106928
ष्य 1106181
ଡ 1106064
▁गेले 1105865
کو 1105021
▁ꯑꯗꯨꯕꯨ 1104912
▁மே 1104829
▁should 1104637
तम 1104051
पो 1103512
▁जागोन 1103242
റ്റി 1102260
▁विषय 1101978
؟ 1101647
શો 1101370
▁अभ 1101237
▁یمن 1101082
▁जै 1100951
▁ഫ 1100911
▁ꯑꯁꯤꯅ 1100756
▁टे 1100539
हरूमा 1100489
▁କଲେ 1100470
▁राष्ट्रीय 1099246
B 1099133
رین 1098732
▁வழ 1098225
▁नाग 1097978
بی 1097752
▁મો 1097618
▁اے 1097257
▁திரு 1096745
▁போன்ற 1096681
▁कोण 1096645
▁থৌ 1096565
োঁ 1096433
▁* 1096413
ity 1095693
▁ꯃꯅ 1095324
்ப 1094394
ன்ப 1093988
लेम 1093686
▁વધુ 1093623
▁অসিগী 1093018
▁जमा 1092766
and 1092754
▁many 1092754
▁ਇਕ 1092681
▁2018 1092473
ొ 1092280
▁ᱢᱮᱱᱟᱜᱼᱟ 1091764
থোক 1091668
ᱮᱥ 1091372
▁दास 1091324
கை 1091130
ాలను 1091072
ಿಯನ್ನು 1090551
▁कंदा 1090396
▁கரு 1090341
▁आब 1089635
▁त्याने 1089629
▁स्म 1089480
▁آپ 1089344
▁واریاہ 1089284
ियल 1089048
ावर 1088935
▁जन्म 1088848
తు 1088748
थाइ 1088245
▁بادشاہ 1087946
്ര 1087916
ᱮᱴ 1087700
વિ 1087141
કી 1087130
▁टी 1086961
▁নিংথৌ 1086650
ार्थ 1086632
▁बड़ी 1086289
▁dei 1086175
▁அதிக 1086072
▁under 1085645
ച്ച് 1085530
ાન 1085410
▁चाह 1085106
▁ര 1085015
▁चौ 1084951
ନ୍ତ 1084884
▁ପା 1084726
▁দেখ 1084671
বল 1084429
▁माध्यम 1084227
વો 1084157
▁ಹೊರ 1083149
▁చేయ 1082436
▁نش 1082349
▁ra 1082127
▁कार्यक्रम 1081870
▁जाएगा 1081186
ङो 1080929
▁কাজ 1080291
▁कयलनि 1079826
ధ 1079607
ଦ୍ଧ 1079225
ாட்ட 1078660
इन 1078622
जानाय 1078360
வீ 1078334
লের 1078222
▁दाख 1078114
तन 1077642
▁ꯊꯣꯛ 1076880
de 1076853
ய் 1076583
▁जौ 1076568
▁करि 1076255
▁பய 1076226
▁পর 1075943
്യം 1075773
ಾಲ 1075723
▁रात 1075663
▁ꯉꯝ 1075644
খৎ 1075623
▁পি 1075565
झे 1075420
ꯨꯄꯥ 1075388
ist 1075385
▁बिखौ 1075123
▁व्यक्त 1074882
ल्ल्या 1074710
രോ 1074152
ऊं 1073767
ারা 1073665
▁तैर 1073478
▁बेनिखायनो 1073267
▁te 1073217
▁তোম 1073051
ோம் 1073019
▁ಮೂಲಕ 1072634
ස් 1072477
▁کٔنۍ 1072180
▁दिस 1072047
ানে 1071036
▁ᱥᱟᱶ 1070888
▁பெ 1070875
▁તેણે 1070872
▁अहाँक 1070612
▁ᱮᱛᱚᱦᱚᱵ 1070580
▁कोरोना 1070573
▁ಕೋ 1070507
களின் 1070058
ുകള 1069632
▁v 1069554
ಾಪ 1068478
▁भएको 1068420
ങ്ങ 1067989
ानो 1067123
▁ᱜᱚᱡ 1067108
▁أ 1066742
▁রয়েছে 1066680
▁these 1066453
▁हुन्द 1066363
▁नाश 1066216
▁उनाव 1066121
▁बां 1065746
▁য়াই 1065675
▁मेरो 1065471
ैः 1065341
फी 1063634
▁such 1063396
▁தனது 1063352
ম্প 1063273
▁மூ 1063255
ತ್ಯ 1063088
▁मात्र 1063000
▁what 1062597
▁साइ 1062464
ଲ୍ 1062417
▁तक्कर 1062330
ङ्ग 1062151
୍ୟ 1061936
▁লি 1061867
▁फे 1061812
ා 1061684
క్ష 1061653
ணி 1061652
▁some 1061602
▁ᱠᱟ 1061416
ై 1061254
ळे 1061180
▁चे 1060917
▁அவரது 1060858
▁வா 1060222
▁कुल 1060198
યા 1060080
▁त्व 1060035
▁Minister 1059665
▁ਲੋਕਾਂ 1059204
इट 1058984
▁پیش 1058744
▁दै 1058578
्यु 1058571
▁years 1058461
வது 1058082
ह् 1057776
िक् 1057522
ಿತು 1057511
ಿಸುತ್ತ 1057276
▁মহ 1056975
च् 1056938
ಜಿ 1056844
द्र 1056375
▁ପ୍ରତି 1056354
ಸಿ 1056275
ಕೆ 1056047
▁होइत 1056024
ꯚ 1055952
▁ద 1055851
▁مگر 1055709
▁निक 1055604
▁સુધી 1055417
▁রে 1055368
▁আমাদের 1055270
ങ്ങളുടെ 1055185
ষ্ঠ 1055079
▁অব 1055004
▁23 1054106
ਠ 1053839
रिया 1053678
▁हार 1053593
म्ब 1053486
▁कुन 1053341
নিং 1053311
▁பூ 1053265
▁कहैत 1053247
ନି 1053021
▁ঐগী 1053001
▁ස 1052970
▁कृ 1052473
पाल 1051915
ප 1051606
▁எனவே 1051514
त्व 1051400
नाव 1051391
▁സ് 1051342
▁হয়েছে 1050771
▁നിങ്ങൾ 1050658
বার 1050126
▁ਕਰੋ 1049993
▁केवल 1049858
▁लोकें 1049502
▁ରାଜ 1049339
र्व 1049142
गार 1049092
କ୍ଷ 1048989
▁കൊ 1048880
यल 1048874
▁இய 1048833
▁બધા 1047856
▁ᱞᱮᱠᱟ 1047808
ஹ 1047692
▁கொண்டு 1046944
बु 1046625
ंज 1046110
▁କରିଥିଲେ 1046056
▁ମଧ୍ଯ଼ 1045692
ರೂ 1045414
▁হায়বসি 1045281
▁చాలా 1044891
ண்டு 1044710
▁ಬೆ 1043866
▁നിന്ന് 1043665
ಖ 1043519
▁تک 1043383
म्स 1043356
▁ऑफ़ 1043281
▁মান 1043055
ଧ 1042941
▁তেওঁৰ 1042915
▁सुरक्षा 1042321
ಕರ 1042219
▁ਰਿਹਾ 1041884
ꯗꯕ 1041776
හ 1041466
▁बेनि 1040978
▁उदाहरण 1040198
▁ત્યારે 1040149
ुनि 1039990
▁କାରଣ 1039789
ண் 1039458
आई 1039113
▁मानोना 1038929
مہ 1038845
▁किछु 1038813
▁खेल 1038778
L 1038517
▁बता 1038186
രുടെ 1038127
▁पड़ 1038071
ما 1037616
▁God 1037474
▁ਗਈ 1037461
▁2. 1037402
ುತ್ತದೆ 1037315
▁అతని 1036763
▁مار 1036606
▁लॉ 1036477
▁ᱫᱟᱨᱟᱭ 1036220
লিবা 1035968
▁बड़े 1035542
▁इसलिए 1035040
ডি 1034921
▁+ 1034682
डु 1034468
▁கொ 1034367
দনা 1034269
ेंगे 1034263
ਹਾ 1033990
▁ഏ 1033679
▁کتھ 1033524
ଙ୍ଗ 1033270
പ്ര 1033105
▁हून 1032599
▁अन्त 1032477
▁ක 1032174
▁ꯁꯥꯊꯤꯅ 1032072
▁ꯂꯥꯛ 1032068
▁તમને 1032030
اک 1031848
ர்கள 1031513
ಬಹುದು 1031433
▁मास 1031406
्ड 1031089
▁বলে 1031034
▁ਹੋਰ 1031014
ꯟꯕ 1030964
▁ᱚᱲᱟᱜ 1030868
▁baroh 1030850
▁મારી 1030806
ಪ್ 1030713
▁may 1030219
▁कभी 1030051
्टी 1029915
ப்படுகிறது 1029839
▁கொரோனா 1029432
▁খুদিং 1029409
ങ്ക 1029297
ම් 1029154
▁ද 1028786
▁వే 1028720
▁year 1028684
▁प्रणाली 1028660
▁অমনি 1028561
ਮਾ 1028546
ꯖꯤꯟ 1028276
দমক 1028139
ಾನೆ 1028117
மே 1027946
▁ജന 1027885
പ്പോൾ 1027495
▁देखून 1027345
లే 1027286
▁بار 1027252
▁થ 1027060
ளி 1026842
▁হৈছিল 1026758
▁മാ 1026621
ছিলেন 1026571
▁ତାଙ୍କ 1026219
▁হৌ 1026218
▁work 1026097
ત્ 1026031
எ 1025820
▁तैयार 1025380
वन्तः 1025267
▁हमारे 1025151
▁We 1024711
▁ಅದನ್ನು 1024070
▁ꯄꯥꯝ 1023916
▁ص 1023735
▁நட 1023438
▁হৌজিক 1023378
ઃ 1023374
ङ् 1023158
▁कथ 1022973
उनु 1022955
جن 1022942
ர்க 1022903
▁दिए 1022844
▁ఉ 1022831
▁ڀ 1022475
▁अल 1022455
▁আপনার 1022266
▁ಗು 1022253
पासून 1022133
त्ती 1021413
▁નહીં 1020948
▁ಅವನು 1020687
▁ईश्वर 1020339
▁குறை 1020321
▁சொல்ல 1020164
ायर 1020020
यु 1019860
्मण 1019419
▁ରେ 1019164
ei 1018899
▁go 1018894
▁భ 1018891
▁எழு 1018889
▁जवाब 1018440
▁இருப்ப 1018076
னா 1017927
▁எந்த 1017907
▁रू 1017728
▁सायाव 1017706
ରା 1017699
ᱤᱠ 1016972
ারে 1015798
ାବ 1014241
শে 1014002
ୂ 1014002
▁ਵ 1013446
▁दिल 1013382
મી 1013377
ꯄꯤ 1013360
▁चला 1013129
ভাৱে 1013123
▁রা 1013037
▁ஆக 1012955
▁घटना 1012842
्यात 1012763
▁सेना 1012739
மும் 1012647
▁گژھان 1012544
ন্য 1012460
ிட்ட 1012452
ङ 1012425
ᱟᱜ 1012416
ਟਰ 1012395
ક્ 1012014
▁प्रक्रिया 1011887
ong 1011856
লবা 1011218
थाव 1011204
▁নাই 1010390
लीं 1010298
ঠ 1010109
▁मैंने 1009968
▁ᱥᱮᱞᱮᱫ 1009904
ਾਹ 1009714
▁کٔرتھ 1009398
▁சம 1008673
▁ꯌꯥꯏ 1008432
▁Israel 1008141
द्या 1007805
ാർ 1007570
▁જોઈએ 1007276
ir 1007265
ણા 1007180
▁ᱦᱮᱡ 1007120
▁जखन 1007118
ेंस 1006404
போது 1006061
ಭ 1005259
▁where 1005135
ણી 1005100
▁परन्तु 1005040
▁ᱞᱮᱫ 1004076
ாது 1003764
▁त्यांनी 1003680
▁दोनों 1003544
▁ହୋଇ 1003488
லா 1003206
▁यीशु 1003007
മേ 1002872
les 1002730
▁रोग 1002520
▁سب 1002314
धान 1002309
▁शक 1002185
▁बद 1001959
▁पैह्लें 1001634
ருக்கு 1001282
▁ಸ್ 1001264
.) 1000959
▁ව 1000673
ure 1000605
▁ᱥᱟᱭ 1000580
▁تھ 1000359
▁આવ 999155
ണ്ട് 999124
घु 998772
▁എന്നിവ 998613
▁समी 998560
ৰী 998234
▁पहा 998088
మి 997786
ਾਰੀ 997606
لہ 997257
▁पत्र 996994
▁अधिकार 996885
▁ਕਿਉਂਕਿ 996757
टन 996622
രും 996611
▁இரு 996404
کر 996346
ತ್ರ 995952
▁स्थिति 995915
▁ᱚᱡᱮ 995616
ब्र 995459
▁ਇ 995438
▁தோ 995398
పై 995013
▁लिख 994974
ತಿಯ 994623
ഥ 994393
▁تن 994280
." 994022
گی 993870
ᱪ 993680
গৎ 993499
ಃ 993074
▁ফি 992884
N 992660
▁धरि 992589
▁এখন 992538
ପରେ 992509
▁আস 992487
▁लगभग 992406
▁சீ 991892
▁அத 991732
▁అతను 991631
▁கே 991346
▁இருக்க 991207
▁গা 990528
▁તેમને 990360
▁z 989903
ಾಕ 989403
▁ᱢᱮᱱ 989040
od 988864
▁राष्ट्र 988628
പ്പ് 988555
▁ಬಂದ 988296
▁روز 988076
▁ചെയ്യ 987698
ꯅꯥ 987640
▁ಲ 987596
▁ৱাহ 987506
▁यि 987278
ੂਰ 987067
▁सीमा 986921
ത്യ 986704
ଛି 986151
▁किएक 985700
ాను 985665
▁পাৰে 985439
▁ᱜᱳ 985076
▁செ 984925
ندر 984851
ᱹᱹᱹᱹᱹᱹᱹᱹᱹᱹᱹᱹᱹᱹᱹᱹ 984380
▁मनुष्य 984146
ാല 984095
▁जाहि 983930
ok 983846
স্থ 983552
્ 983481
्ला 983256
▁करपाक 982967
▁बायदि 982792
भव 982733
দম 982681
اف 982405
▁सिद्ध 982012
▁ar 981726
ாவது 981653
जना 981390
▁chu 981367
▁જેમ 981290
డం 981213
▁धो 981211
प्त 981127
▁ਵਰ 981083
▁କି 980952
▁गासिबो 980922
▁প্রধান 980595
▁गर 980579
दारी 980432
▁உள்ளது 979584
▁विभिन्न 979298
ினார் 979233
▁திட்ட 978988
▁गुण 978874
र्क 978768
▁చె 978703
▁come 978539
ന്ത 978372
G 978166
ீர்கள் 977938
ٔ 977461
સો 977397
▁पात 977270
▁फा 977072
▁195 976984
▁सुर 976868
تہ 976806
ప్పుడు 976638
▁चाल्ली 976603
▁लिये 976331
رب 975909
ವಾಗ 975622
▁ಸಿ 975484
▁સુ 975446
▁ପର 975028
▁در 974690
▁মায় 974368
▁सही 974183
ꯨꯝꯅ 973988
ish 973890
▁), 973814
▁वाली 973734
നോ 973576
▁हुनकर 973314
kh 973214
▁ఉంది 973033
▁చూ 972638
▁विभाग 972531
▁ನನಗೆ 972314
ھان 972287
▁माव 972205
ളി 971801
बाक 971566
▁बुं 971410
▁کرنے 971247
▁before 971164
ಿಕೆ 970932
ہر 970619
▁ᱰ 970592
▁गैर 970517
▁नरेंद्र 970507
ᱟᱹ 970280
▁ᱨ 969968
ين 969932
▁पहिरीं 969816
ंद्र 969748
▁भाषा 969630
▁रंग 969071
ِ 969019
ᱹ 968928
നാ 968908
ෙ 968894
यितुं 968777
▁பர 968638
▁أمۍ 968332
హో 968261
च्च 968202
▁कर् 968068
▁ꯅꯨꯡꯁꯤ 968008
▁చెప్ప 967764
ளு 967670
ప్ 967556
▁ਹੋਏ 967225
ন্ধ 967198
ꯗꯝ 967104
▁दाव 967064
க்கம் 966737
▁ਮੈਨੂੰ 965980
▁முன்ன 965488
ৃত 965407
கிற 965188
ꯁꯤꯟ 964492
انہ 963701
▁لا 963610
ஃ 963539
▁سٕنٛد 963396
ॉल 963336
ୀଯ଼ 963040
বনি 962738
▁لو 962730
ிரு 961830
▁اپنے 961759
▁गाहाय 961492
▁उनले 961455
▁ꯃꯍꯥꯛꯄꯨ 961212
se 961176
▁खिलाफ 960908
ᱥᱤ 960852
▁இர 960826
▁বৈ 960807
ன்ன 960182
രെ 960180
ावी 960079
▁प्रवेश 959849
▁ਜੇ 959805
▁ಹೋಗ 959477
▁ଆଉ 959194
ുവ 958894
▁મૂ 958805
ٽی 958516
ઉ 958438
▁امہ 957805
▁ভা 957739
ರಾ 957608
ांग 957502
▁కొ 957375
னம் 957284
ꯗꯦ 956920
ੇਸ਼ 956776
▁ꯅꯤꯡꯊꯧ 955892
▁ৱাখল 955871
▁இந்திய 955431
▁now 955256
▁उपलब्ध 955255
▁ꯂꯩꯕꯥꯛ 955240
ᱝ 954932
ാരം 954788
▁पुरुष 954671
ম্ন 954499
యా 954293
போ 954117
ਬਾ 954113
হাক্না 954020
চি 953277
▁સિ 952993
▁सद 952686
थार 952543
க்கப்பட்ட 952493
▁जिस 952461
लै 952393
▁சூ 952314
चल 952254
▁ദൈവ 952212
▁இன்று 951985
▁சக 951774
ण्यासाठी 951462
▁अह 951333
▁തി 950858
▁ਕਰਦਾ 950545
▁مح 950421
શા 950414
क्टर 950032
কাৰ 949826
▁ᱛᱷᱟᱯᱚᱱ 949768
त्तर 949271
▁ಹೆ 949207
ೌ 949119
▁ಬಗ್ಗೆ 948973
ুনি 948922
▁तदा 948852
वक 948610
વાની 948553
ताः 948538
वाह 948409
▁ئی 948249
▁অসিনা 947886
▁sp 947794
क़ 947354
▁स्कूल 947295
▁যখন 947228
▁चरण 947173
்ட 946758
H 946723
ting 946595
▁वाला 946105
▁डर 945783
▁উপর 945654
رائ 945626
▁ਪ੍ਰਧਾਨ 945618
▁ಅನ್ನು 945297
ೀಯ 945250
▁آمت 944708
▁ᱥᱟᱫᱷᱟᱨᱚᱱ 944376
▁तं 944296
▁شر 944281
শু 944228
▁ऐसे 943660
▁ᱥᱮᱪᱮᱫ 943400
▁ਘ 943065
▁तांकां 943050
विक 942727
▁am 942724
ᱡᱤ 942696
▁स्क 942391
▁किए 942126
ie 942113
▁government 941993
्यार 941891
યો 941852
▁ग्र 941830
▁ઓ 941829
▁ڪئی 941802
▁देल 941745
వే 941660
▁तल 941654
▁दिली 941473
म्म 941171
ag 941062
▁ಸಂ 940989
र्ट 940892
पू 940770
▁ꯀꯔꯤꯒꯨꯝꯕ 940348
ies 940302
ीय 940197
▁उसकी 939997
जें 939980
▁કર્યું 939267
੍ਰ 939155
్య 938973
▁ਸਰ 938892
टो 938787
टि 938525
യം 938430
▁लेकर 938312
زی 938003
▁కు 937723
గు 937598
ਫ਼ 937497
▁अग 937373
ட்டி 937133
▁गेजेराव 937030
ma 936866
▁being 936541
▁जादोंमोन 936513
وری 936417
यति 935982
ಿನಲ್ಲಿ 935963
▁என்பது 935926
▁লাক 935733
▁వా 935309
ುತ್ತ 934973
▁কম 934962
▁بن 934910
▁ꯃꯩ 934904
▁उसने 934803
ീക 934788
ങ്ങളിൽ 934568
▁ᱥᱤ 934400
▁வள 934111
▁கூ 934005
▁यहाँ 933849
▁زیادٕ 933632
▁ताम 933314
▁مق 933029
ంత 932931
▁ਸਾ 932714
▁She 932615
▁ज़मीन 932603
ೃ 932530
▁ویندو 932500
୍ଯ଼ା 932382
▁कित 932264
भाग 931556
ᱩᱫ 931480
ᱭᱟ 931272
▁ꯃꯗꯨꯒꯤ 931076
▁पसंद 930929
▁رک 930666
▁us 930627
▁खास 930571
▁सभनें 930344
রক 930058
▁गड 930052
▁तमो 929866
ਉਣ 929697
्यता 929592
ৱে 929534
റിയ 929318
সের 929231
▁ᱠᱟᱹᱣᱰᱤ 929000
▁گژھن 928784
از 928775
ල් 928607
▁खबर 928397
્યુ 928201
▁ಇಲ್ಲ 928066
్రా 927935
ۄ 927904
വേ 927571
▁পূ 927037
ाये 926760
▁রাম 926653
ாள் 926553
കള 926473
▁تب 926189
▁पुन 926109
▁did 925997
▁छैन 925756
ನ್ನೂ 925609
▁లేదా 925387
▁ସୁ 924785
▁उत्पादन 924383
ರಿಗೆ 924215
▁মথ 924097
▁लागू 924023
▁కోసం 923858
▁ꯆꯍꯤ 923680
▁ৰা 923595
▁ਮੇਰੇ 923293
▁40 923160
▁देवता 922936
▁कीमत 922868
▁पालन 922772
▁ਰਹੇ 922666
▁য়াও 922489
▁युद्ध 922450
োগ 922276
▁Ka 922230
▁o 922174
▁تون 921912
मक 921858
চু 921621
▁26 921461
▁दृष्ट 921243
▁స్ 920885
हुँ 920815
▁नज़र 920660
▁இருக்கும் 920610
19 920270
▁அள 920255
ஜி 920254
धि 920232
▁ᱠᱚᱲᱟ 920032
▁প্রা 919773
▁chuan 919710
▁મે 919366
િંગ 919081
▁आदि 918918
▁റ 918889
ച്ചു 918571
ph 918425
त्ता 918341
▁ꯃꯑꯣꯡ 918204
ᱷᱟᱹ 918160
▁200 918087
▁പാ 917649
▁डो 917607
▁சந்த 917525
12 917116
ப்பி 917052
▁ਕਰਦੇ 916970
▁അവരുടെ 916957
ಟ್ಟು 916578
▁एव 916393
▁হো 916172
▁सोच 915886
ುತ್ತಾನೆ 915740
▁थां 915690
ঞ্চ 915664
▁उनका 915619
▁દુ 915601
▁1, 915493
▁तुझ 915295
काल 914836
▁हाल 914807
▁ಅದು 914705
▁രാജ 914688
ండ 914412
वल 914277
ꯛꯄ 914156
▁सिंज 914145
▁ଆସି 914077
യിലെ 913988
▁ꯃꯍꯥꯛ 913940
ꯍꯟ 913920
க்கிய 913228
ాలి 912671
▁मत 912642
▁ꯗꯤ 912512
▁بو 911916
द्य 911886
▁बराबर 911822
▁অনি 911480
▁सन् 911282
.... 911274
ton 910998
ී 910861
િન 910710
स्व 910404
▁ଉପ 910226
▁ମା 910007
क्ति 909911
▁কী 909852
டுத்த 909685
ara 909415
▁জি 909266
▁फल 908894
▁பொது 908772
▁देवा 908668
ಿಸಿದರು 908342
ಥ 908230
ட்ப 907891
▁ಕೈ 907745
यि 907455
▁عمل 907403
তার 907388
▁ব্যা 907337
षा 907334
ෝ 907323
▁ଫ 907058
▁మా 906909
▁ਲੈ 906888
ிகளை 906810
▁ᱩᱫᱩᱜ 906008
▁சிற 905856
்கிற 905693
▁ਸਕਦਾ 905417
ꯟꯗ 905376
▁प्यार 905363
▁ताल 905330
▁থি 905294
ৰত 905019
▁क्ष 904981
▁પાસે 904823
ಿಯಲ್ಲಿ 904376
ꯠꯀꯤ 904332
ge 904311
▁खामानि 904202
▁રહે 904058
ള്‍ 904039
त्वा 904027
▁महि 904011
▁নহ 903926
दृ 903556
نٛ 903508
ਯ 903475
▁மீ 903407
▁নত্ত্রগা 903101
▁ധ 902967
▁ਆਪਣੀ 902915
▁सिर्फ 902889
▁जुन 902888
▁नरेन्द्र 902882
हित 902446
▁ꯏꯁ 902156
▁यांनी 901518
ூர் 901461
▁भेट 901249
▁शो 901176
▁ꯈꯨꯠ 900772
கின்றன 900616
▁মপা 900315
▁अथवा 900164
▁ਹਰ 900151
▁तेन्ना 899950
▁ফা 899521
▁196 899427
▁ꯍꯧꯖꯤꯛ 899380
▁22 899377
ত্ৰ 899239
ूट 899165
▁অমদা 898937
▁করিগুম্বা 898592
▁ھ 897830
▁अं 897817
ଥିଲେ 897559
▁வழங்க 897166
▁ସ୍ୱ 897090
िको 897085
▁തന്റെ 896785
ഃ 896730
▁ꯃꯇꯥꯡꯗ 896320
ග 896279
ಗಳಿಂದ 896255
എ 896033
▁ਵਾਲੇ 895823
ട്ടു 895801
दक 895780
▁اعظم 895754
▁ஆகிய 895673
▁लऽ 895252
▁आसात 895090
▁साह 895026
ತು 895017
▁তৌবা 894861
▁مش 894399
मां 894290
ಾಸ 894034
ரும் 893990
▁என 893810
▁मिळ 893805
▁মন্ত্রী 893119
▁सुबुं 893070
▁കൈ 893045
▁very 892520
▁پو 892497
▁बरे 892474
▁ਉੱ 892386
ꯌꯨ 892288
വർ 892090
▁య 891995
ರಿಂದ 891414
▁دور 891305
लाह 891038
পে 890979
ran 890945
▁ಫ 890814
ொரு 890650
ಡು 890493
ష్ 890375
माक 890255
ꯀꯅꯤ 890108
▁ᱵᱟ 890088
▁تع 889869
▁તરીકે 889771
▁क्रो 889551
ನ್ಯ 888962
▁ಜನ 888822
த்தி 888762
ାତ 888655
नायाव 888397
▁हृदय 888379
▁कृपा 888050
▁થાય 887806
▁न्यू 887794
ॉन 887595
▁দ্বারা 887334
▁వారి 887245
▁ಕಾ 886914
▁অমনা 886696
▁ꯌꯥꯎ 886620
▁= 886528
▁अभ्यास 886497
ි 885771
ations 885624
▁தூ 885570
్ర 885509
▁எதிர 885335
ড়া 885306
ொழுது 885214
மையான 884948
ফি 884795
ટા 884655
మీ 884501
▁स्पष्ट 884188
▁அழை 884155
▁अभी 884016
▁ai 884011
▁तुम्हाला 883929
▁চু 883778
▁बिसोरनि 883729
▁મેં 883503
வன் 883469
ನೇ 883468
▁कितें 883425
त्रा 883189
▁ꯃꯦ 883176
ಡುವ 883144
शील 883024
গ্ৰ 882788
▁جیڪی 882756
▁दर्शन 882700
োপ 882320
▁ଲୋକ 882292
▁पॉ 881446
▁கட 881331
▁know 880907
డానికి 880835
▁But 880820
▁होना 880803
▁શા 880779
▁ਰਾ 880524
▁کٔر 880172
▁आमी 880140
ट्स 879983
लाम 879942
ꯎ 879832
ଣା 879679
डर 879601
স্ক 879593
▁ಬಿ 879407
▁పా 878974
এল 878938
▁କିନ୍ତୁ 878874
▁ଶୁ 877912
▁શ્રી 877812
▁ꯏꯟ 877620
▁ꯈꯣꯡ 877524
ه 877391
▁வரை 877337
▁गाय 877116
▁जाह 876859
एन 876839
▁ꯑꯁ 876676
ెను 876572
▁ਜ਼ 876441
▁অদোম্না 876319
ාව 876243
▁కానీ 876226
▁ᱛᱟᱹᱞᱤᱠᱟ 875756
মী 875454
ନ୍ଦ 875338
▁ഉപ 874503
ions 874459
▁कान 874423
▁ज़याद 874421
▁तर्क 874334
▁घो 874245
ଆ 874211
ਤਾਂ 874178
▁ताईं 874169
▁ਕੰਮ 873900
رس 873861
ꯔꯛ 873824
গদ 873702
▁जाल 873602
ਾਇ 873594
▁ਤਰ੍ਹਾਂ 873450
मर 873310
नायखौ 873162
સી 873138
ding 872898
▁સે 872816
able 872785
ᱦ 872756
ਸਾ 872679
ꯅꯣ 872476
▁दान 872431
▁ؤ 872311
▁नदी 872106
▁ଉ 871922
▁ꯇꯥꯛ 871764
▁سک 871711
▁خلاف 871518
▁For 871240
ck 871142
▁পাই 871123
▁இப்போது 870999
ٽر 870926
▁अमेरिका 870868
ਸ਼ੀ 870747
▁હવે 870323
▁کیٛ 870116
▁ꯑꯃꯠꯇ 870096
▁ꯋ 870056
▁जायत 870018
▁ಹಿ 870017
ᱱᱟᱢ 869996
ப்பட்டு 869598
்வ 869460
▁तौर 869453
▁घा 869226
बाद 869203
்கு 869127
ಟಿ 869127
বাদ 868951
▁মচা 868847
▁आद 868802
ାମ 868730
▁പരി 868676
▁તેમની 868275
ಿರ 868028
▁करके 867820
दु 867793
ꯂꯛ 867740
ꯦꯁꯟ 867700
کس 867631
▁आपण 867477
▁رہ 867446
বলৈ 867299
ङा 867292
▁ઊ 866913
লাই 866437
▁വെ 866335
▁ఆయన 866272
രിക്കുന്ന 866270
▁कोशिश 866136
तया 866058
▁kane 865936
చు 865890
▁তবে 865807
▁चीज़ 865404
▁चु 865289
গুলির 865240
ણે 865077
▁three 864933
▁তে 864885
▁came 864832
ne 864451
▁করবে 864417
దా 863891
▁वास्त 863611
मू 863509
ub 863294
▁ಆದ್ದರಿಂದ 863228
یوں 863155
▁पाल 862687
മുള്ള 862678
ികൾ 862541
ન્ડ 862313
▁अधिकारी 862213
▁एकर 862043
▁ताचे 862023
الی 861995
्यते 861814
▁ਬਾਅਦ 861761
▁ଟ 861669
चं 861649
ित्त 861578
ਣੀ 861385
भे 861272
പ്പെട 861206
▁പു 861165
ರಣ 861087
▁बाहाय 860937
ত্ব 860909
▁அனைத்து 860888
▁گژھ 860818
▁உருவா 860757
सिन 860734
സം 860532
F 860423
ذ 860282
पाची 860115
ஷ் 859992
▁यहां 859924
ফম 859616
धे 859601
▁यी 859542
െന്ന് 859229
ृष्ट 859065
▁बैंक 858962
लाव 858884
▁यम 858839
▁स्प 858664
▁অমুক 858342
▁गरिएको 858307
▁ગુ 858164
পী 857371
▁ਕਿਸੇ 856957
▁कुनै 856932
ரே 856871
▁व्यवस्था 856845
ম্মী 856770
▁યુ 856740
▁दैत 856462
▁കേ 856192
▁মতো 856025
▁ઈ 855792
▁नाव 855720
ಲೇ 855673
▁सम् 855600
▁अन् 855324
கிறார் 855309
▁کہا 855159
કે 855101
▁ಏ 854946
▁सूचना 854931
త్ 854807
▁दिवस 854784
ધી 854763
প্না 854678
▁ہر 854499
▁ख़ 854422
▁ਸਭ 854417
▁सकदा 854329
▁बताया 854134
▁स्वर्ग 853987
▁سگ 853933
▁பின்னர் 853711
▁அமை 853444
▁ചെയ്തു 853392
▁पार्टी 853380
▁ತಿ 853218
ब्ला 852994
ದ್ದ 852832
▁सामने 852747
▁ڇا 852573
मुळे 852537
▁பண 852402
▁હે 852234
اؤ 852228
▁सिद्धांत 852120
▁कंपनी 851843
▁صرف 851514
ઓને 851351
ud 851139
▁हिंज 851055
▁शक्ति 851034
மைய 850989
▁.. 850940
ੁੱ 850587
પા 850373
▁ᱰᱷᱮᱨ 850240
नीय 849854
ৱাৰ 849745
دن 849470
ters 849416
ਦੀਆਂ 849187
ꯒꯗꯕꯅꯤ 849128
▁તમારી 849065
▁उत् 849023
મો 848890
▁ସେହି 848576
▁जानवर 848428
▁இருந்து 848339
বর্ 848274
த்தார் 848197
▁সঙ্গে 848134
▁কাম 848117
▁हवा 848108
ସି 848036
تن 847787
▁ఆమె 847761
▁माता 847658
▁एफ 847518
ंदर 847464
ിക്കും 847352
েনে 847249
▁எனக்கு 846913
િલ 846817
▁मलाई 846791
ହାର 846766
▁ಕೇಳ 846764
শিন 846750
.1 846688
માન 846597
ষ্ 846271
▁even 846246
ೊಂದಿಗೆ 846034
▁ꯑꯇꯣꯞꯄ 845676
▁जाए 845561
▁2019 845278
▁അതി 845233
▁ᱵᱮᱣᱦᱟᱨ 845140
लेल्या 844567
ഘ 844472
▁महा 844345
▁মদু 844244
▁হয়েছিল 844162
▁per 843856
فی 843711
▁उठा 843622
तक 843437
▁বহু 843284
ழை 843236
▁ᱫᱟᱲᱮ 843188
ிடம் 843028
ುತ್ತಾರೆ 842527
▁बिसोरो 842334
ૃ 842307
▁आले 842243
োধ 841870
ary 841626
ியாக 841569
ળી 841548
▁ਤੌਰ 841393
ᱟᱭ 840924
▁महरै 840555
▁ذریع 840502
▁life 840494
اء 840451
▁जय 840228
धित 840023
▁গু 839544
▁वक़्त 839541
▁தேவ 839202
▁ನೀ 839057
▁सदस्य 838795
▁করেছিলেন 838708
تہٕ 838488
দ্ধ 838323
தல் 837817
िकल 837720
▁मौत 837005
▁ଜଣେ 836996
▁चढ़ 836892
▁ঙম 836654
প্ত 836525
▁ಮೇ 836345
▁दें 836341
▁ಯಾವುದೇ 836311
▁उनको 836119
শিংবু 835711
ive 835056
ಾಜ 835054
्रेस 835053
ꯒꯤꯗꯃꯛ 834716
न्थ 834675
▁অহ 834378
▁आत्मा 834328
ay 834296
▁कम्म 834287
ात्मक 834264
য়ার 834229
▁अनुभव 834074
▁ꯅꯨꯄꯤ 834044
43 834010
▁ᱢᱮᱱᱟᱜ 833980
ദ് 833847
▁आर्थिक 833844
▁কোনো 833797
▁गर्नु 833655
േണ്ട 833611
▁निष् 833584
▁नियम 833360
▁सत्य 832984
▁ساتھ 832963
▁ଯା 832906
▁ହେଉଛି 832876
▁ঐখোয়না 832812
ట్లు 832746
▁अश 832666
बान 832500
▁নাম 832239
▁world 832105
ow 831910
▁মতুংদা 831591
മു 831393
ांव 831111
▁ইব 831010
▁चित्र 830640
▁خاص 830401
▁ઉપયોગ 830362
▁ಓ 830257
▁लेगीत 830201
▁शिक्षा 830180
▁ᱠᱷ 830000
▁ശ്രീ 829882
▁ꯑꯅꯤ 829868
▁जस 829853
नेट 829491
▁बैठ 829332
▁থাকে 828973
నీ 828740
▁വേ 828605
▁அவன் 828480
▁وی 828368
▁ய 828273
দেশ 828001
णार 827993
ance 827941
کا 827452
▁पद 827164
ियम 827094
ಕು 827029
▁ᱩᱱ 827016
▁કહે 827006
▁କହିଲେ 826948
সকলে 826739
▁सन्त 826580
মেন্ত 826406
नुव 826285
▁ಮಾ 826131
ঙ্ক 825897
▁ᱩᱱᱠᱩᱭᱟᱜ 825836
10 825786
ᱲ 825784
భ 825579
▁ખૂબ 825349
ંત 825301
▁गैया 825173
ତ୍ର 824913
▁ਅਸੀਂ 824889
▁این 824797
ത്തിലെ 824570
दै 824505
▁ہیٚ 824480
▁অমদি 824445
वीं 824376
ംഗ 824320
▁അനു 824301
▁ಧ 824245
स्ती 824134
চর 824112
ꯦꯡ 824080
ੋਰ 824067
▁മോ 823795
गिरि 823791
▁दवर 823761
▁آسان 823747
▁କରନ୍ତି 823660
▁പ്രതി 823631
▁ಈಗ 823541
▁नंबर 823362
▁You 823140
▁വീ 823127
▁मामले 823110
इल 822726
▁ڈی 822175
▁योग्य 822059
ैन 821922
▁ex 821714
ain 821688
▁সম্প 821662
घि 821524
▁ꯊꯧ 821456
▁ꯂꯝ 821136
ध्या 821089
न्ह 820973
▁करण्यासाठी 820921
െങ്കിലും 820361
▁ହେ 820339
மி 820269
▁عام 819991
मत 819769
माण 819719
▁तेषां 819662
▁രൂപ 819644
ப்பட்டது 819545
▁state 819518
000 819344
ங்களுக்கு 819152
ர்ந்த 819077
▁অসু 819048
▁ನೀಡ 818983
ਾਲੀ 818831
▁एंड 818827
▁फि 818748
ುತ್ತಿದ್ದ 818626
▁કર્યો 818581
দী 818476
▁संबंधित 818426
ੈਨ 818356
▁অধিক 818227
▁ᱡᱮᱜᱮᱫ 818116
▁सर् 817855
▁ఫ 817338
▁आर् 817307
वाय 817297
ங் 817123
▁سند 816902
डि 816780
क्रम 816734
यत 816677
▁கொள்ள 816595
यी 816473
సు 816429
ٚن 816372
▁സ്വ 816307
ிகள 816286
▁اف 815954
முறை 815892
ৰু 815890
▁ਦਿੱਤੀ 815770
▁নতুন 815732
▁लेख 815515
▁زن 815490
दू 815464
▁make 815347
▁సం 815210
ഖ 815184
फ्राय 814971
▁آب 814850
▁তো 814738
▁நினை 814456
हुन्छ 814398
▁ગયા 814330
▁संबंध 814259
▁न्हय 814203
▁కాబట్టి 814202
ഞ്ഞ 814194
▁जाओ 813974
▁ਨਿ 813947
▁शोध 813811
▁भाव 813769
▁سم 813644
ക്കുന്നു 813610
ئر 813581
▁कैसे 813503
ધા 813351
र्ख 813237
▁ꯍꯦꯟꯅ 813160
▁प्रकाश 813157
▁ꯑꯃꯗ 813084
ਕੇ 812954
ಷ್ಟ 812857
ஞ 812830
পগী 812800
দ্র 812669
ઠ 812259
▁ইয়াৰ 811896
▁करपा 811791
▁Ki 811667
పి 811594
▁घटि 811468
ിക്കുകയും 811427
▁ठेव 811305
ੱਕ 811293
রু 810618
ਵੀ 810576
জ্ঞ 810523
স্ট 810480
സ്റ്റ 810354
▁संदर्भ 810099
ٹس 810097
▁कानून 810060
ꯪ 809968
▁फिन 809867
▁ڪن 809826
▁সম্ 809500
▁ഉപയോഗ 809439
▁دیو 809197
▁ڪو 809064
भर 809009
▁ওপৰত 808600
کہٕ 808384
▁अस् 808264
कारी 808000
▁Blei 807961
ᱤᱭᱟ 807884
नगर 807786
কু 807732
्रेट 807609
▁खालामनो 807129
▁விரும்ப 807078
▁ದು 806878
▁تٔمۍ 806288
হি 806286
▁वर्णन 806194
▁ಅವ 806165
વાર 805880
▁king 805690
▁आँख 805649
▁जाई 805542
য 805495
▁അവന്റെ 805442
▁লৈবাক 805264
▁হেন্না 805091
ியா 805074
▁They 805048
▁ꯊꯤ 804996
▁ಸಾ 804994
ಡೆ 804825
फोरजों 804660
િય 804561
▁ଦେ 804550
▁लड़ 804534
లలో 804493
▁সো 804442
ದಿ 804064
▁60 803944
ারি 803891
धन 803659
▁مس 803552
▁कौ 803550
ठा 803440
ੋਂ 802808
্ব 802637
▁ᱠ 802376
▁ஆண்டு 802029
., 801974
ୀର 801956
▁वाढ 801769
डून 801626
उने 801603
▁تائین 801504
▁विन 801445
ਵੇ 801143
▁দিন 800926
▁आनंद 800755
▁தி 800737
▁बच 800646
▁কোনও 800616
▁کار 800610
▁থোক 800584
▁फोन 800433
▁फोर 800027
▁அனை 799797
▁گوٚو 799704
▁వె 799672
تے 799554
▁থাক 799540
ப்பை 799511
▁बल 799172
▁खुद 799152
வுக்கு 799065
▁ਬਾ 798607
െന്ന 798242
ଫ 798170
▁सगळ्या 798136
ध्य 797757
▁ಕೆಲಸ 797674
▁भरत 797656
▁ග 797654
രുന്ന 797595
▁ব্যৱহাৰ 797372
▁ਹੋਣ 797332
▁वाह 797329
▁स्तर 797033
▁तत् 796446
য়ান 796097
ুপ 795827
▁ꯃꯅꯨꯡꯗ 795796
ંડ 795654
▁কোন 795566
▁फार 795239
ಾಣ 795105
] 795045
▁ᱡᱟ 795028
▁en 794901
പി 794864
▁ഡ 794469
▁হল 794467
▁എല്ലാ 794331
ꯣꯝ 794092
▁ततः 793993
▁ఓ 793921
ಲಾ 793813
▁तहत 793531
പ്പെട്ട 793484
▁একজন 793298
ꯣꯁ 792972
ꯔꯣꯏ 792720
দোক 792670
▁ᱥᱤᱜᱤᱞ 792476
ିବା 792415
ौं 791821
▁ಕೆ 791441
▁য়ে 791391
▁சட்ட 791387
▁आन 791111
▁లే 790817
ంట 790677
▁அரசு 790582
▁धन 790536
▁ಎಲ್ಲ 790302
▁অনেক 790102
▁ద్వారా 789805
ാന്‍ 789739
ठे 789699
▁সব 789569
ll 789415
्ले 789061
▁ટ 789038
ായിരുന്നു 788965
▁ప్రతి 788894
▁27 788789
▁वस्त 788771
▁மக 788732
ଛ 788710
▁हमेशा 788702
পদা 788519
ുന്നത് 788461
▁ರಾಜ 788278
▁ଶ୍ରୀ 788063
கா 787987
▁मतलब 787813
▁পৰ 787743
ings 787734
ेट 787533
▁गासै 787033
جہ 787031
▁इत 786831
▁हक़ 786636
▁ᱯᱷ 786584
ங்களின் 786447
– 786406
▁स्थित 786358
ਿੰਗ 786238
गल 785976
▁மனித 785891
फर 785753
▁आपके 785700
tes 785659
▁आगे 785645
▁ଖ 785645
स्म 785618
রাং 785586
▁گڏ 785549
▁de 785520
▁தா 785280
▁ڪم 785258
▁झाले 785219
ించిన 785192
ਣੇ 785082
▁গে 784954
ിനെ 784743
▁অন 784628
ിക്കാൻ 784589
▁پہ 784512
li 784329
▁क़ 784310
விட்ட 784233
ਸਤ 784208
▁ꯑꯁꯤꯗ 783936
▁गरेको 783760
▁बिथाङा 783750
▁നില 783696
▁অংশ 783601
▁करोड़ 783474
ষণ 783419
ائن 783031
জর 782763
▁% 782124
▁বু 782046
▁ᱢᱟᱦᱟ 781496
▁). 781453
▁உட 781294
ꯣꯡ 781244
نننن 781208
ments 781077
ଗୁଡ଼ିକ 780923
▁भूमि 780861
▁ਜਿਵੇਂ 780332
ꯂꯣ 780240
हरा 780146
▁लकिन 780128
▁थि 780108
▁बाह 780041
▁जसले 780005
یہٕ 779868
▁श्र 779686
▁போல 779557
द्वारा 779525
க்கான 779471
شی 779335
बन 779090
పో 779083
▁பட 779069
▁રાખ 779033
▁every 778929
up 778864
ial 778719
কৈ 778556
્રે 778413
जक 778353
▁അത 778353
ম্ম 778193
▁किं 777952
▁ସହ 777654
▁ਤੁਹਾਡੇ 777525
نز 777511
پی 777397
ঙা 777149
▁पत्नी 777147
▁सकती 777132
କି 777077
ಡಿಯ 777071
टक 776993
▁सहयोग 776933
▁চহি 776815
▁લે 776760
▁રા 776708
स्था 776422
থোক্ 776399
▁भाई 776294
ദ്ധ 776159
पर्यंत 776098
നു 776019
നും 775893
▁উৎ 775856
েরি 775607
▁house 775379
ાં 775284
्यं 774912
সকলৰ 774806
.5 774554
▁பொ 774542
▁গো 774513
نہ 774461
मेन 774424
▁ᱠᱚᱨᱟᱣ 774316
▁ਦਿ 774241
ୌ 773808
ꯠꯇ 773716
▁பெரிய 773623
ளுடன் 773425
gan 773393
▁रां 773194
▁ᱥᱟ 773164
▁அதன் 773143
▁लगे 772938
जात 772804
▁काळ 772725
▁जोड़ 772664
▁منز 772390
ಿಸುತ್ತದೆ 772388
▁শ্ৰী 772328
निंग 772308
▁مختلف 771953
▁children 771842
ोव 771636
ിക്കുക 771393
▁ون 771386
ক্না 771136
▁जेव्हा 771134
▁सके 771094
▁स्वा 770853
▁most 770625
▁ડ 770511
▁ꯇꯤ 770504
్యా 770488
▁because 770411
ഡി 770379
▁मोनो 770321
ணம் 770309
▁ગયો 770078
▁ਕੋਲ 769984
यात 769965
ள்ளது 769923
▁خاطرٕ 769768
ोनो 769689
णें 769503
▁धरती 769336
▁இரண்டு 769211
▁दश 769108
ாமல் 768600
▁through 768506
ිය 768503
गै 768500
ையான 768468
▁मूल्य 768419
▁Z 768244
▁एगो 768035
▁தன் 767915
▁ডি 767719
▁अलावा 767389
▁මේ 767175
com 767161
ेषु 767027
▁kan 766888
▁pat 766811
▁ਗੱਲ 766804
▁પુ 766703
▁નિ 766503
కొ 766423
▁شری 766192
▁ಬಳ 766191
ംഗ് 766061
▁ನೋಡ 766059
▁ਕਰਨਾ 766029
▁विकसित 765873
▁తీ 765863
▁સમય 765849
رٕ 765296
▁অদুদা 765136
▁194 765090
ਿੱ 764922
▁ꯃꯔꯤ 764804
▁लैता 764484
খিব 764241
▁முக்கிய 764174
▁छात्र 764074
र्ण 764019
▁છ 764015
▁பிரதமர் 763824
താ 763783
▁ਦਰ 763605
▁ngi 763417
▁କାର୍ଯ୍ଯ଼ 763356
-2 763304
▁ᱫᱤᱱ 762956
▁झु 762917
▁सुधार 762911
▁ज़ि 762881
गण 762711
बां 762512
▁मग 762486
▁ਪਰਮ 762332
▁मिले 761952
क्षा 761946
▁এমন 761042
ರನ್ನು 760974
▁आठ 760925
▁well 760898
ig 760884
▁बह 760635
▁কৰাৰ 760608
▁ਤੁਹਾਨੂੰ 760489
ꯨꯗ 760464
▁गेलाह 760459
▁ਦੁ 760223
आर 760139
لن 760088
வ் 760043
ংগ 759949
মিক 759413
ക്കി 759321
▁ಬಳಸ 759299
▁शिक 759240
ٺ 759099
য়ু 758908
▁As 758687
▁विरुद्ध 758664
▁नष्ट 758609
▁काज 758576
▁ব্যক্তি 758470
ಿದರು 758461
▁পৃথি 758368
तां 758293
றை 758262
▁नागरिक 758176
▁முழு 758171
▁तुलना 757708
ങ്ങളെ 757590
▁طرح 757087
ిక 756966
▁/ 756964
ियत 756946
▁தங்கள் 756660
▁கை 756035
▁এম 755963
கி 755904
▁ஆம் 755641
ಂದರೆ 755559
சை 755500
▁திற 755451
দ্ 755303
व्या 755277
▁आश 755248
ावे 755180
यै 755179
▁— 755137
কের 754984
सम्म 754888
▁विरोध 754658
▁ईमान 754619
▁सुख 754525
ખા 754443
বেন 754283
ತ್ವ 754226
▁আগ 754107
▁سن 754071
ിവ 753930
▁शु 753907
ian 753851
నికి 753755
शि 753661
▁ওইর 753652
்ச்ச 753644
▁get 753603
▁कांग्रेस 753390
▁পায় 753334
ியு 753188
▁Ch 752881
▁மிக 752728
▁वैज्ञानिक 752703
lam 752569
▁شروع 752523
ous 752276
▁पह 752180
িনি 752074
থে 752049
▁take 751830
▁अम 751657
જો 751622
▁चाल 751423
▁टीम 751368
▁അതിനാൽ 751093
▁অতি 750901
ᱳᱞ 750888
▁घाल 750758
▁অতোপ্পা 750716
▁आधुनिक 750564
▁लोगो 750527
▁দ্বাৰা 750212
▁মত 750094
▁રાજા 749844
ছেন 749678
▁ਸਮ 749663
▁अवदत् 749631
▁পাউ 749599
▁ਸ਼੍ਰੀ 749526
▁अंक 749500
ana 749489
▁වි 749340
▁wan 749320
▁गुरु 749100
ଡ଼ 748960
ಂಕ 748873
▁ꯃꯥꯡ 748760
▁گیا 748727
▁ꯖꯤ 748712
ks 748634
▁ഇട 748617
్ 748371
▁between 748359
▁गोज 748178
▁डेटा 748169
नेछ 748159
ೊಂದು 748040
▁महान 748036
▁राय 747695
▁پوء 747540
▁ꯋꯥꯐꯝ 747264
▁ଥିଲା 747163
▁নিৰ্ 747160
▁নয় 747040
▁மக்கள் 746857
तना 746774
वर् 746605
▁কু 746579
୍ରୀ 746567
▁প্রো 746442
▁ᱦᱤᱸᱥ 746384
ील 746189
ಲಿಲ್ಲ 746131
थो 746077
▁क्ल 745798
▁जमीन 745685
▁তাকে 745607
▁ᱞᱮᱫᱟᱭ 745432
▁ꯀꯣ 745420
ಿವ 745240
ोप 745219
▁यः 745126
▁ಅದರ 745118
्रम 745048
▁आकार 744869
ਈ 744770
▁സെ 744671
்த்த 744519
▁آم 743983
شت 743924
ೆಯೇ 743845
ੁਕ 743751
▁दक्षिण 743697
▁could 743684
▁புதிய 743680
करा 743127
▁మన 743081
▁ନିଜ 742928
▁ꯑꯉꯥꯡ 742852
▁नो 742619
▁आला 742294
▁अच्छा 742115
▁2017 742099
▁मौ 741821
িলে 741669
نے 741665
▁क्यों 741611
▁वर्ग 741585
▁बाथ्रा 741448
▁வெளி 741205
▁பிற 741082
▁آر 740907
▁প্ৰধান 740849
ਹਿ 740785
ంగ్ 740751
ृती 740627
▁भु 740527
▁ᱫᱟᱜ 740504
दिन 740451
▁કામ 740423
▁ಕಾರ್ಯ 740174
▁চাই 739870
▁બા 739732
▁બો 739651
पत्र 739627
▁बनाने 739570
द्द 739566
▁पोस्ट 739564
▁மாநில 739341
য়ের 739304
ness 739148
ള്ള 738923
▁ꯋꯥꯍꯩ 738820
▁ସି 738784
▁पहु 738729
राम 738717
▁ਐ 738714
▁लोकां 738539
▁مدد 738503
▁खि 738459
యం 738361
▁केईं 738135
ओओओओ 738087
▁मना 737939
▁बेसी 737853
▁खुश 737432
▁इहा 737313
বর 737297
ॉक 737235
▁କରିବ 737124
ிருக்கிற 737030
▁ਵੇਖ 736926
പ്പോ 736670
▁प्रयास 736658
આ 736590
▁आह्ले 736514
▁अंदर 736415
▁سڀ 736192
▁ಹೊಂದ 736190
ദി 736168
▁ꯂꯤ 735916
▁আমাকে 735856
▁ᱥᱟᱨ 735828
▁بد 735824
انس 735533
வெ 735482
िकी 735425
सत 735398
ru 735328
▁எடுத்து 735090
ിത 735001
కా 734941
ಳಿ 734938
▁पिछले 734861
▁कुरा 734848
▁ಅಂದ 734746
▁پیدا 734583
▁कोला 734514
ᱩᱨ 734444
▁অন্য 734362
োয় 734298
▁चर्चा 734298
▁ꯃꯇꯨꯡ 734292
▁રહ્યો 734262
ङाव 734230
▁जाये 734114
▁য়ু 734085
یاتی 733976
▁માન 733860
▁असेल 733818
दैन 733810
ਃ 733755
▁ನೆ 733491
▁डा 733399
▁ପ୍ରା 733288
▁पुस्तक 733287
▁co 733178
▁व्हड 733148
▁উদ্ 733003
▁वृ 732492
▁ang 732375
ையாக 732214
▁ಮಾಡಿದ 732116
▁ಹೆಚ್ಚು 732052
▁comp 731971
ଠ 731906
ell 731852
▁ය 731826
ാക 731556
க்கள் 731409
▁پننس 731364
▁நில 731328
▁ಗೆ 731265
▁ਏ 731137
▁پور 730971
▁वाट 730831
ূপ 730699
▁سڀنی 730500
▁good 730319
ಾಂ 730119
▁اب 730053
▁अध्यक्ष 729848
යේ 729746
▁মন 729664
▁అప్పుడు 729590
▁ᱠᱚᱣᱟ 729528
ന്ദ്ര 729469
دہ 729417
▁Sh 729400
ൌ 729321
▁എന്നാൽ 729260
ᱤᱨ 729216
▁ତୁ 729192
മാന 729191
▁अक्ष 729085
▁हुन्छ 728943
களுக்கு 728859
▁നിർ 728320
ତ୍ 728244
भि 728095
பா 727974
स्र 727946
▁மன 727811
▁ହେବ 727528
▁টি 727481
▁how 727451
രുന്നു 727249
▁जाऊ 727247
▁દી 727218
ung 727208
ार्थं 727187
▁चर 727128
▁ꯆꯤꯡ 726992
▁while 726838
▁গণ 726766
▁महत्वपूर्ण 726632
▁टो 726603
▁சமூக 726517
▁ᱳ 726496
▁धार 726493
ानै 726435
ंख 726412
▁Ram 726387
▁छे 726271
भू 726125
ard 725904
▁য়েং 725880
▁جیئن 725872
ik 725758
িকা 725612
▁ꯇꯣ 725600
ட்டை 725580
വ് 725451
▁ಡ 725413
▁पाव 725352
▁રહ્યા 725224
▁ત્યાં 725192
০ 725178
▁म्हणजे 725173
▁इज 725130
▁पैर 725107
▁प्रदर्शन 724753
▁अद 724671
▁उपरांत 724552
▁आण 724537
न्ने 724311
▁உண 724258
तं 724085
वारी 723762
ित्र 723725
த்துவ 723693
▁ꯌꯥ 723508
▁হি 723485
▁செயல்ப 723428
▁होगी 723351
டும் 722949
्याने 722718
▁हिक 722698
▁এন 722599
▁व्यापक 722045
▁during 722035
▁چھنہٕ 721936
ितीय 721716
▁kin 721507
ரில் 721466
▁ضرورت 721434
पूर्ण 721306
▁اع 721297
▁ꯐꯤ 721288
றிய 721083
▁दस 721065
ਮਾਨ 720660
মাণ 720652
▁মতুং 720613
U 720471
ਊ 720214
પી 720090
▁मॉ 720077
▁කර 719897
োঙ 719737
▁കാല 719687
ांचा 719618
▁আপোনাৰ 719250
▁করুন 719002
▁men 718898
▁ব্যবহার 718864
▁ꯐꯥꯎꯕ 718756
▁पौ 718642
▁करोति 718371
ತೆಯ 718343
छा 718029
age 717568
▁2010 717375
▁$ 717293
▁बनाया 717222
▁भवतः 717152
▁বিভিন্ন 717062
म्बर 717012
▁उतर 716926
▁तिनीहरू 716617
▁मंत्र 716607
દો 716532
ાર્ 716499
▁निर्णय 716464
▁આપણે 716351
▁गाज्रि 716339
▁காண 716190
▁प्रार्थना 716171
▁ভারত 716126
ord 716008
ులు 715831
്പ 715760
न्ड 715723
▁सकदे 715720
▁സു 715664
શન 715629
uk 715283
ති 715266
ாதார 715090
▁28 715090
▁आउ 715063
▁ডা 714973
▁मुं 714927
ম্মি 714892
▁ඒ 714891
▁നാ 714656
▁വ്യ 714629
▁তৈরি 714607
▁गेई 714499
তির 714495
▁कांय 714434
▁বলেন 714374
▁ᱢᱳ 714312
▁بنی 714215
وان 714147
▁काफी 714147
भाष 713910
▁समुद्र 713868
ence 713857
ba 713812
▁तत्व 713734
▁ସଂ 713631
ंदे 713612
िता 713589
▁అను 713514
▁घट 713490
ণি 713357
▁भोजन 713316
▁गथ 713212
સે 713195
ांश 713186
▁ಭೂ 713103
ർത്ത 713031
▁192 712970
▁केही 712904
ंध 712747
നായ 712689
▁देओ 712580
लेट 712576
ਨੇ 712407
▁असल 711616
▁پاڻ 711600
▁ಅಪ 711492
ୃତ 711454
▁குழந்தை 711358
▁பயன்படுத்த 711302
ಪ್ಪ 711273
▁होनाय 711190
▁ചില 710872
▁ꯂꯥꯟ 710836
▁ను 710517
ated 710436
▁اسہ 710427
▁হিসাবে 710105
▁ਵਿੱਚੋਂ 709993
தில் 709564
▁సమ 709441
ષ્ટ 709365
ন্থ 709336
ানী 709330
▁थार 709217
▁ꯃꯃꯥꯡꯗ 709216
وب 709140
رم 709097
ਪੀ 708987
▁செய்து 708980
▁हां 708840
▁हमें 708746
▁رام 708703
వల 708632
යක් 708560
▁केन्द्र 708558
त्ति 708398
बिल 708257
▁मिली 708200
രണ 708128
▁चीन 708065
▁கூட 707532
ꯦꯝ 707404
▁ము 707345
ise 707266
▁जोबोद 707230
▁down 707171
▁खंय 707128
▁2011 706941
ꯁꯤꯟꯕ 706852
▁સ્વ 706849
்ய 706801
ूब 706261
गोल 706246
▁ഉണ്ട 706222
▁ಪರಿ 705976
▁ખા 705783
▁നൽക 705768
નિ 705738
नानै 705679
▁नई 705464
ਇਆ 705036
்களை 704978
▁डॉ 704728
▁केंद्रीय 704538
अर 704474
▁थै 704399
ଜୀ 703962
బ్ 703830
▁फिसाज 703778
▁बाप 703747
انن 703560
धिक 703381
▁ڏین 703328
ట్ట 703303
▁وڌیڪ 703172
▁ছ 703136
తా 702815
▁ꯁꯦꯡ 702432
ும்ப 702390
लाइ 702389
हू 702344
▁آو 702211
ട് 702162
▁An 701582
▁કરીને 701360
▁ꯀꯔꯤ 701328
تو 701287
▁संस्था 701023
کن 700852
▁टॉ 700795
▁land 700628
▁प्रस्ताव 700598
க்காக 700400
ାନ୍ତ 700376
▁व्यवहार 700321
▁म्हणाला 700218
▁ପୁ 700007
হ্ 699889
▁ꯃꯊ 699840
꯫ 699816
▁way 699636
▁होदोंमोन 699532
स्थित 699476
▁অমগী 699261
চিত 699210
▁कर्तुं 699118
▁used 698903
▁ಇದ್ದ 698878
▁মওং 698707
ꯕꯤꯌꯨ 698676
োৱা 698664
स्थान 698580
▁स्वामी 698419
▁29 698251
▁অদুগী 698102
ত্তি 698043
▁back 698027
वात 697899
ho 697848
يو 697841
▁اڳ 697787
ாளர் 697692
▁ਮੰ 697675
ूम 697637
▁എന്ന് 697602
▁वच 697569
வதற்க 697377
▁last 697114
▁શક 696869
ᱚᱛ 696864
ീയ 696842
തും 696521
ിച്ചി 696375
▁اھو 696322
▁পিছত 696304
▁स्थापित 696297
▁ब्रह् 696246
▁ఉండ 696126
બી 696065
▁सहित 695974
छि 695946
▁ଅଛି 695765
لم 695544
ന്യ 695541
▁ज्यादा 695521
........ 695447
▁দেখা 695160
ᱞᱤ 695012
ᱟᱣ 694952
▁ᱛᱟᱞᱢᱟ 694780
▁آف 694731
ரம் 694514
▁परिवर्तन 694493
ടുക്ക 694430
লোন 694217
க்கிற 694206
किंग 694149
▁अल् 694117
્રો 693882
▁কল 693870
▁শেম 693772
ईं 693551
▁ପରେ 693493
▁se 693485
ائین 693457
▁অৱাবা 693453
▁थानाय 693365
▁leit 693009
▁रिपोर्ट 692993
▁ಆದ 692983
▁हासिल 692966
श्ट 692886
▁बचा 692739
▁बर् 692658
रिक 692571
କ୍ତ 692509
ؤ 692505
য়র 692260
ꯔꯝ 692244
୍ୱ 692104
ادی 691941
▁দৰে 691756
▁நம்ப 691673
ত্ত্ব 691655
▁स्पे 691528
▁جس 691425
▁নহয় 691347
▁খুৎ 690988
▁ꯃꯔꯝꯗꯤ 690948
்கள 690824
▁संघ 690764
▁مص 690706
क्क 690629
▁करती 690602
▁ᱠᱳ 690420
ંદ 690362
ళ 690344
ಜ್ಞ 690187
मल 689964
▁ترقی 689451
60 689395
ക്കുക 689233
▁ਲੋਕ 689216
లీ 689126
ᱤᱞ 689032
▁वांगडा 688816
▁گر 688799
▁खालामो 688741
▁येव 688733
▁ମଧ୍ଯ଼ରେ 688700
െയ 688468
ட்சி 688410
▁सुरू 688374
▁ଅଧିକ 688362
▁గా 688257
گر 688253
▁जानो 687919
రూ 687900
শ্ 687836
▁आम्ही 687797
নবগী 687717
▁തന്നെ 687717
াইন 687565
▁ਫਿਰ 687404
▁here 687380
▁जिसमें 687293
▁نظ 687179
ज़ी 687166
ර් 686982
▁தெ 686929
ാനും 686871
▁ꯍꯧ 686740
ꯙ 686736
▁এস 686711
▁শেষ 686650
રમાં 686567
▁ಹೆಚ್ಚ 686566
ꯊꯤ 686560
सभ 686282
ac 686229
▁went 686227
▁பரி 686206
▁ସମ୍ 686184
▁کانٛہہ 686168
▁மத்திய 686118
ಂಚ 686029
▁ਰੱਖ 685919
▁500 685621
सह 685460
इस 685430
ꯑꯣ 685164
ುತ್ತೇನೆ 684961
▁سال 684953
न्या 684780
▁नौ 684760
▁lah 684755
ரிக்க 684733
▁भुर 684733
▁നിങ്ങളുടെ 684614
ens 684593
▁असा 684585
ದೇ 684551
▁ہم 684548
ாவில் 684536
હે 684515
K 684404
▁वेग 684396
▁इसी 684364
اتی 684170
▁विषये 684159
▁उसका 684140
ट्र 684131
▁करब 683978
▁ಮಗ 683831
▁മനുഷ്യ 683818
ಿದ್ದರು 683771
▁ਵਾ 683752
▁અન્ય 683569
▁ଅନୁ 683533
▁شامل 683509
▁பிறகு 683434
▁ꯈꯔ 683388
ꯜꯂ 682664
▁অঙাং 682648
▁बल्कि 682618
▁ਸਕ 682593
▁କରିବାକୁ 682580
▁रुपये 682570
▁मिला 682441
▁વર્ 682218
ಮ್ಮ 682202
▁شہر 682049
▁প্রধানমন্ত্রী 681998
ୃ 681885
▁உய 681797
tcy 681777
▁ꯃꯍ 681776
ty 681710
▁ਸਮੇਂ 681687
ੈਕ 681675
ટે 681310
ism 681198
▁لی 681157
ꯋ 681144
ji 681143
سٹ 681052
▁हुनु 680954
▁தொ 680824
▁பழ 680775
રુ 680545
ेष 680454
ந்தது 680260
▁मज 680194
संग 680177
)- 680032
ach 679896
▁सुंदर 679591
இ 679478
ਐ 679430
▁pro 679396
▁देलनि 679379
ical 679259
▁शकतात 679221
ରଣ 679171
ಂದ್ರ 679166
ಕಾರ 678985
▁হাত 678461
বশিং 678420
ᱫᱚ 678388
भी 678386
चना 678282
ᱚᱜ 678268
▁பேர் 678197
▁number 678177
ত্য 678175
▁نظر 678126
▁अंग 678125
ندو 677997
হো 677955
▁ವಿಷಯ 677786
ियाँ 677716
▁बच्चा 677661
▁అది 677527
भयो 677450
▁ফাওবা 677295
▁மற்ற 677233
ಿರುವ 677057
▁கட்டு 677052
ନ୍ତୁ 677022
टल 676814
▁ᱢᱩᱫᱨᱮ 676756
ಸ್ತ 676746
▁करेंगे 676727
▁ین 676697
वाल 676524
্ৰে 676521
ینی 676280
▁संयुक्त 676224
▁ਹੋਇਆ 676161
▁অফ 676128
▁ক্ 675979
▁khun 675944
▁ꯑꯩꯈꯣꯏꯅ 675620
্রী 675472
▁ꯑꯋꯥꯕ 675292
” 675091
▁முடி 675087
▁country 675005
18 674942
▁रोज 674677
▁चाही 674437
▁ruh 674319
▁use 674233
▁जगह 674190
▁दया 674146
ೆಯು 673963
হার 673934
ුව 673642
ᱳᱯ 673636
▁ᱡᱩᱫᱤ 673620
▁आनन्द 673354
ధి 673282
▁आसान 672999
തിന് 672784
▁ದಿನ 672738
▁कार्ड 672731
निक 672605
▁முடியும் 672597
▁यात्रा 672569
▁ꯀꯔꯝ 672496
▁ਲਿਆ 672495
▁same 672329
▁शी 672217
▁খো 672202
यः 672166
▁री 672036
▁مت 671888
▁دل 671878
ଟ୍ 671873
▁ਬਾਰੇ 671870
▁बोली 671825
ഞ്ച 671806
". 671730
▁ꯏꯪ 671640
▁স্ত 671539
గి 671269
० 671263
▁آسہ 671196
▁ਨਿਰ 671184
नुहोस् 671168
▁su 670822
▁ꯑꯁꯤꯒꯤ 670672
▁ਵੱਖ 670612
▁එ 670509
گو 670423
ಮಿ 670422
ാതെ 670379
▁ভি 670300
▁ꯂꯥ 670300
னாக 670278
শন 669965
ୀଙ୍କ 669935
▁बाट 669740
ष्यति 669609
தே 669439
ಗು 669300
▁పరి 669265
▁దేవు 669255
য়াৰ 669144
▁झाला 669082
▁वस्तु 669054
▁खूप 669047
▁ಐ 669020
ভা 668734
වා 668723
▁पूरे 668650
▁ꯅꯨꯡꯉꯥꯏ 668548
▁जोर 668408
▁மர 668391
▁ਪੈ 668307
▁इतर 668256
কৰ 668090
ेंच 667819
▁येता 667794
▁ඉ 667597
▁ਹੁਣ 667461
కో 667388
ுங்கள் 667379
▁বেশি 667192
▁संत 666983
শিল্ 666858
▁حص 666741
ੋਲ 666734
▁film 666714
▁आदेश 666649
ଂ 666549
▁પ્રધાન 666250
ఫ 666244
▁মসিনা 666042
ेंत 665996
ांमध्ये 665957
▁ನಾ 665803
▁al 665673
▁सरकारी 665608
▁பார 665111
ym 665072
గ్ 665035
లతో 664820
▁तमाम 664771
▁सुरक्षित 664748
रेन 664701
▁ਘਰ 664606
tor 664605
▁ꯃꯁ 664576
सेस 664441
ांतल्यान 664200
ମାନ 664195
ਿੰ 664176
▁ट्रे 664157
ھر 663973
▁मेरेन 663957
थोन 663940
▁On 663851
पान 663773
ऱ्या 663719
ᱢᱵ 663476
▁ಆತ 663397
▁কৌ 663318
▁ਇੰ 663200
ન્સ 663160
▁طریق 663144
▁ऊर्जा 663120
▁off 663091
ري 663044
▁مہ 663032
▁चुनाव 663005
▁பின் 662887
োক্ 662854
ണ്ണ 662749
▁गोहो 662730
ਦਾਰ 662452
ારી 662416
ள்ளார் 662390
▁जना 662368
▁डाल 662353
▁تیار 662325
▁रक्त 662272
ළ 662127
▁اسے 662105
দান 662090
▁इस्रा 662048
▁एउटा 661913
▁સાંભ 661802
▁పు 661690
ಣೆ 661635
નમાં 661509
ਕਾਂ 661426
थी 661379
ക്കാ 661312
▁যু 661263
ରୀ 661159
▁विशिष्ट 661079
▁پرو 661033
ানু 660978
▁पारां 660813
▁ସା 660790
▁होआ 660769
▁বিশেষ 660732
▁चाहिदा 660721
कम 660661
▁ಕಾರಣ 660640
ᱥᱚᱱ 660544
▁এতিয়া 660429
▁આપી 660332
▁स्थ 660288
▁हुने 660218
▁उल्लेख 660104
वण 660103
▁ज़ुव 659997
ங்கி 659551
িতা 659388
▁దా 659313
▁ಪ್ರತಿ 659272
लों 659271
▁आतां 659147
▁ਹੁੰਦਾ 658943
ര്യ 658902
गासिनो 658887
▁جنگ 658658
▁ధ 658628
नै 658618
ಗ್ 658425
യില്ല 658413
तरी 658382
▁ꯃꯣ 658204
زن 658195
▁खर 658194
▁ꯃꯤꯌ 658160
▁तिन 657857
▁ꯇꯥ 657848
▁لگ 657839
वत 657775
ڇ 657661
▁ಅನು 657661
టీ 657502
▁तंत्र 657493
▁ꯑꯥꯏ 657488
▁35 657293
▁आवाज 657194
▁மீண்டும் 657193
▁सामग्री 657167
▁तेल 657096
క్క 657083
थर 657007
▁पंतप्रधान 656949
▁येवा 656947
▁ꯑꯃꯅ 656768
▁यथा 656612
▁There 656515
▁କର 656465
▁ஸ்ரீ 656216
▁shi 656065
െങ്കിൽ 656052
▁समर्थन 655974
ुम् 655973
ٹا 655865
نن 655760
▁આવ્યો 655693
ಷ್ಟು 655659
ائڻ 655648
▁নির্ 655539
ବାର 655513
▁son 655470
मार 655443
▁ᱴᱚᱴᱷᱟ 655428
▁ਦੋ 655339
▁ꯃꯥꯏ 655280
▁ബാ 655251
▁പുറ 655211
ਮਾਂ 655167
જન 655097
▁ଦି 654592
வான 654472
ral 654377
िएको 654368
▁स्वीकार 654303
▁अच्छी 654284
வாத 654192
ीक 654110
यू 654066
हरूका 653868
▁बांसिन 653862
▁मद 653723
▁କୁ 653713
▁દરેક 653680
લ્ 653668
▁କହି 653601
▁దాని 653473
ഞ്ഞു 653319
▁নিং 653298
▁जानाय 652958
▁hand 652935
ಂಗ್ 652862
▁यदा 652625
▁मंदिर 652586
▁ഇന്ത്യ 652543
▁जेह्ड़े 652394
ल्प 652214
സ്ര 652118
▁ଲ 652107
▁दरवा 651939
▁পাম 651616
▁അദ്ദേഹം 651473
▁உத 651351
▁ආ 651213
▁પ્રા 651130
▁തീ 651125
▁see 651025
▁বুলি 650885
ਨਾਂ 650782
▁Prime 650572
▁గు 650513
▁କୌଣସି 650500
▁তাৰ 650417
▁نق 650300
ंच 650295
▁पुट 649827
▁शकता 649598
ꯒꯗ 649392
ꯥꯟꯕ 649336
▁থকা 649272
▁व्याख्या 649233
கிறார்கள் 649219
िती 649183
ஸ்ட 649152
▁என்பதை 649063
స్తుంది 648939
iem 648857
▁हों 648848
ꯁꯇ 648796
▁माय 648761
আ 648759
▁just 648678
▁kam 648634
ണ്ടു 648499
ूण 648447
ುವುದಿಲ್ಲ 648394
▁saw 648365
▁ಮಹ 648351
▁ଅନ୍ଯ଼ 648288
vi 648263
▁प्ले 648251
▁सम्मान 648114
ૌ 647948
ंभ 647942
യായി 647925
ासी 647893
▁ਭਾਰਤ 647808
▁प्रतिशत 647773
सल 647702
▁അല്ലെങ്കിൽ 647648
ಶ್ 647601
▁मैले 647580
▁नेता 647550
▁விள 647533
▁मीडिया 647474
▁ᱦᱚᱨᱟ 647464
▁करतो 647449
ന്റ 647442
▁एड 647162
َ 647086
▁ਮਾਰ 647015
▁ओकर 646808
ियर 646776
▁நாட 646455
▁நல்ல 646338
മോ 646308
▁स्त्री 646294
ന്നി 646257
▁ph 646170
ଥି 646035
▁নুংঙাই 645977
▁യി 645824
▁समाव 645730
రీ 645681
▁പോ 645534
▁noh 645368
▁रोखो 645367
्यांनी 645264
▁എന്ത 645027
▁जाल्यार 644875
▁ne 644830
▁പ്രധാനമന്ത്രി 644756
▁கூறினார் 644585
வரும் 644521
▁होयत 644473
িলি 644456
पुट 644364
▁उसी 644320
ual 644294
▁ꯑꯀ 644284
ராக 644278
यत् 644171
▁এসে 644005
▁দেশ 643997
▁अभवत् 643795
▁पल 643620
লী 643604
न्तं 643430
مار 643356
ব্ 643273
▁കുറ 643260
ਗਰ 643121
ബി 643048
▁सर्वे 643018
▁நாம் 642931
থক 642790
▁নুমিৎ 642734
ગી 642566
▁जबकि 642516
▁जुदि 642400
వర్ 642398
▁विस्तार 642320
▁हिस्सा 642255
▁ব্য 642205
▁शताब्दी 641843
▁লো 641723
રના 641597
مین 641589
▁ᱯᱚᱨᱤᱢᱟᱱ 641548
▁निय 641514
্ৰী 641405
ீர் 641397
▁वटि 641373
▁जेना 641166
▁यद्यपि 640987
▁ත 640972
▁இருந்தது 640928
▁ज्ञ 640837
▁ஏற்ப 640781
▁दंमोन 640720
ংগী 640594
▁தெரிய 640531
▁وا 640437
அ 640350
▁கிர 640248
ଃ 640070
▁सक्षम 639599
▁ਸਕਦੇ 639321
▁বিচাৰ 639260
▁सुन्दर 639156
▁බ 639104
▁तै 638930
▁किताब 638904
वले 638737
खान् 638635
মন্ত্ৰী 638581
▁ভাই 638538
▁بہت 638443
▁water 638235
▁હાથ 637888
▁ꯑꯃꯅꯤ 637872
ਚਾਰ 637800
ड्या 637616
▁193 637262
ظ 637176
▁تي 637176
▁કા 637060
னுக்கு 637041
▁અમે 637038
▁সরকার 636720
ுவ 636619
▁गृह 636615
▁மட்டுமே 636241
▁यांच्या 636225
▁ಇಲ್ಲಿ 635842
्लो 635831
▁दिले 635783
शास्त 635736
▁હો 635657
ାର୍ 635430
्ये 635388
▁پاس 635371
▁ad 635317
▁name 635257
ণী 635105
مو 635070
ന്റ് 635067
రో 635020
▁ꯁꯔꯨꯛ 634992
ଜି 634962
▁ਸਾਲ 634928
▁વર્ષ 634869
▁ꯊꯥꯎ 634836
त्री 634819
ast 634809
▁भौतिक 634675
▁2022 634588
▁con 634424
▁ਖਾ 634331
ite 634267
▁অভি 634037
▁केल्या 634008
খিদে 633981
▁ಕಿ 633966
ञ् 633808
▁جنہن 633716
▁پھ 633635
▁മെ 633609
मित 633471
ியல் 633404
ins 633232
▁মম 633088
ೊಳ 633073
▁कुर्व 633031
▁सार्वजनिक 633021
नस 632907
▁खालामनाय 632744
പ്പി 632664
ோர் 632628
▁டி 632483
▁ꯉꯥꯛ 632360
▁شی 632333
▁ته 632245
led 632065
शें 632065
ꯤꯡ 631988
ರೇ 631975
▁जल्दी 631865
▁मानसि 631770
ানবা 631736
र्ज 631709
▁place 631674
▁লু 631598
શી 631437
ಿದ್ದು 631373
▁सच 631165
ोः 631136
▁স্ব 630986
▁days 630938
ਘ 630862
তন 630666
▁ತು 630645
ꯒꯦ 630636
जारी 630593
ाही 630556
न्नै 630510
▁तेँ 630506
ñ 630475
නය 630408
▁চে 630192
▁জা 630101
▁பட்ட 629977
▁ట 629977
▁आत्म 629921
খন 629798
▁called 629714
ారా 629651
▁ಎಂಬ 629604
▁सुविधा 629575
▁2020 629550
▁પી 629545
ક્સ 629505
ളം 629494
න්න 629265
মন 629164
آ 628862
▁इला 628796
▁শুরু 628777
▁உலக 628737
ꯗꯣꯛꯄ 628720
▁ची 628585
आप 628576
कें 628556
ಾಗಿದೆ 628552
▁واری 628528
▁तुला 628468
▁ஒவ்வொரு 628457
▁ನೀನು 628009
▁তেওঁলোকৰ 627992
▁য়ুম 627931
ভাৱ 627829
ବର 627790
▁ਫ਼ 627765
ꯅꯤꯡ 627620
▁ہئا 627560
ન્ટ 627512
▁ਦਿਨ 627439
▁ज़न 627425
▁દો 627408
पणान 627379
లేదు 627032
िके 626999
▁ಪಾ 626922
ꯥꯟꯅ 626892
▁কাৰ্য 626800
ભા 626656
▁খা 626588
▁यही 626445
▁ه 626365
▁ପ୍ରଧାନମନ୍ତ୍ରୀ 626354
ટર 626339
▁اھی 626323
▁کام 626321
▁اصل 626259
ಾನ್ 626248
ఖ 626237
▁ᱥᱟᱦᱟᱨ 626112
▁ಕೆಲವು 625989
▁सक्छ 625986
▁ভে 625911
ਬੀ 625492
जू 625338
ப்பட்டுள்ளது 625298
તર 625256
▁शासन 625239
one 625120
▁එක 625065
▁நாங்கள் 625047
▁শক্তি 624896
▁ਪਹਿਲਾਂ 624821
▁ਅੰ 624774
▁শরুক 624730
খা 624727
রো 624617
▁नए 624559
▁हामी 624511
▁ار 624479
ज़ा 624413
▁নুপী 624391
मेट 624196
▁2009 624159
▁زندگی 624058
शक 623916
▁Be 623608
ಲೂ 623569
ટો 623258
▁നേ 623159
▁अंतर 623094
▁పి 622734
ھنہٕ 622604
▁स्वयं 622524
യായ 622380
▁দেওয়া 622186
ୈ 622170
ম্নমক 622093
दां 622062
▁सूर्य 622006
lo 621774
▁ನಿಮಗೆ 621506
▁হতে 621500
▁આવ્યા 621397
▁সাই 621373
▁శ్రీ 621302
▁योग 621209
ಬಿ 621190
▁সাম 621157
▁ꯆꯥꯡ 621060
▁படி 621001
▁બહાર 620985
▁ની 620968
▁গী 620858
▁যোগ 620853
▁आने 620811
▁રે 620789
शल 620748
ৱৰ্ 620709
िरि 620649
▁निम 620548
ᱩᱢ 620476
▁வெளியே 620465
हीं 620385
▁2016 620305
▁सगळ 620264
▁नौकर 620215
▁உங்களுக்கு 620039
ಳ್ಳ 619933
▁बानाय 619924
iv 619866
ਹੀ 619819
লকপা 619796
▁होंदा 619568
▁मृत्यु 619525
▁असलेल्या 619365
ద్ద 619347
▁le 619107
▁प्रश्न 618782
▁وجہ 618659
ಲ್ಯ 618606
ᱳᱭ 618496
ꯃꯛ 618448
ഷ് 618401
ப்போ 618390
ാവി 618258
ti 618232
▁ꯁꯟ 618180
ਟਾ 618048
▁दूसरे 617975
▁सेथ 617879
▁जेबो 617812
▁हुनेछ 617808
▁ମୁ 617805
చ్చ 617781
ন্ড 617765
ितः 617750
▁போது 617634
▁പല 617486
कीय 617447
▁કરશે 617262
▁ଅନେକ 617116
ৃতি 617089
▁पूजा 617039
পুর 617016
▁ਧਰਤੀ 616916
▁बिथां 616860
खर 616808
▁செல்ல 616566
▁बिग 616565
ದ್ಧ 616561
▁ಮಾಡಿ 616554
▁सिंद 616332
ुत 616030
ంతో 615984
▁ദു 615888
▁भूमिका 615834
केल 615779
all 615654
త్త 615569
▁झू 615535
▁পুন 615196
▁निर्देश 614765
نٛدۍ 614704
▁पं 614610
▁ꯃꯈ 614548
▁ଥିବା 614418
▁St 614314
भार 614191
▁ਮਾ 614175
.2 614065
▁say 613991
लीय 613883
▁आवड 613859
റു 613767
▁इससे 613747
▁those 613672
ائے 613552
कर्ता 613519
▁سا 613501
മ്മ 613489
▁مٲ 613424
▁ym 613320
ियारि 613241
▁police 613236
▁मान्यता 613213
▁ಉಪ 613201
▁விர 613154
▁پری 613148
▁তথ্য 613140
▁ರಾಜ್ಯ 613039
▁పె 612919
▁today 612881
नान 612780
▁மொ 612775
▁इंसान 612706
ଛନ୍ତି 612702
▁ताच्या 612526
ಗೂ 612520
്യൂ 612409
als 612208
▁طورس 612168
ালি 611982
▁ಹಾ 611951
▁ਸਰਕਾਰ 611908
▁होम 611879
▁@ 611712
▁To 611550
ූ 611465
▁प्रायः 611389
ꯊꯣꯛꯄ 611312
▁समर् 611168
ರೋ 611061
▁ആവശ്യ 611041
▁New 610966
▁प्रभावित 610957
▁पाया 610830
▁सों 610640
▁ਹੇ 610523
ருடைய 610501
▁क्षमता 610440
ାରି 610403
▁नार 610333
= 610302
▁जिसे 610152
▁गति 610029
▁उक्त 610019
▁अक्सर 609836
ంచ 609719
ya 609538
▁ਕੁ 609537
రించ 609484
ामी 609363
শীল 609325
ୀନ 609317
বনা 609113
▁মনে 608947
▁ᱜᱚᱴᱟᱝ 608880
ga 608851
▁स्वतः 608709
ಗಿ 608692
▁આવશે 608679
اہن 608469
▁अशा 608409
▁ꯋꯥ 608312
बत 608294
▁ब्ल 607903
▁ಅಲ್ಲಿ 607902
▁ᱧᱩᱛᱩᱢ 607856
▁تج 607842
▁অন্যান্য 607762
▁देर 607456
▁मिथ 607435
ᱨᱟ 607400
▁પે 607261
ਡੀ 607083
ਲਾਂ 607046
▁بنا 607022
ᱧ 606896
eh 606826
ലെ 606653
▁ભાગ 606570
ற்றை 606477
পো 606363
▁परियोजना 606128
▁وو 606111
રણ 606064
ುವುದು 605939
ః 605735
ౌ 605555
▁खाना 605511
▁अतिरिक्त 605484
▁دیا 605393
▁कथा 605364
▁found 605349
▁ꯃꯍꯩ 605320
▁பெற்ற 605185
▁ടോ 605167
▁মতাংদা 605115
▁बहि 605105
ᱵᱤᱡ 605088
મંત્રી 604887
▁யோ 604869
ন্দ্র 604649
ವೂ 604596
▁कहते 604476
▁विच 604457
▁नम 604409
▁ಹೊ 604400
नाम 604381
राक 604278
▁आरोप 604258
▁ᱜᱟᱫᱮᱞ 604244
▁ଦେଖ 604206
▁ਸਿ 604175
do 604154
▁సి 604091
ଣି 603994
▁रहने 603945
खै 603870
▁हागौ 603795
ळ्या 603788
▁کھوتہٕ 603748
పా 603687
▁बाजार 603686
श्चित 603683
▁پٲ 603520
पति 603471
▁വലിയ 603375
ினர் 603307
▁വിള 603307
▁पदार्थ 603276
▁फिल 603210
ాన్ని 603088
▁କିଛି 602964
ாவை 602769
▁2012 602762
▁ऊपर 602725
▁વાત 602629
pi 602538
▁अति 602226
ಗೊಳ 601933
▁पुराय 601920
▁নেকি 601870
ଶା 601838
പ്പെടുത്ത 601721
ꯈꯤꯗꯦ 601684
▁തല 601603
▁طاقت 601483
▁सुरु 601430
▁খর 601326
ാസ 601102
రే 600974
મને 600959
▁विश 600849
்ப்ப 600832
▁তাক 600768
ৱাই 600752
ꯃꯨ 600708
▁ঈশ্ব 600669
ಿಗಳು 600610
▁ಹೊಸ 600600
▁2015 600531
ম্ল 600386
▁नां 600355
▁कुसै 600281
▁ᱢᱩᱫ 600276
▁great 600272
হৰ 600220
्रीय 600194
▁हथ 600165
▁ïoh 600157
▁sy 600147
▁ڏنو 599951
ମି 599937
▁பார்க்க 599878
ूंक 599847
ंय 599654
▁बाब 599612
خت 599544
श्च 599526
▁मौजूद 599489
▁அடி 599424
ਵਿ 599375
ms 599345
ബ് 599312
▁যাতে 599120
▁سمج 599013
▁خط 598987
▁ಮೊದಲ 598950
▁ꯏꯟꯅ 598940
▁ییٚلہ 598936
्वे 598823
ꯐꯤ 598808
▁பற்றி 598717
▁ٻڌ 598569
ন্তি 598556
ارن 598540
सिम 598522
▁देते 598512
▁শিশু 598430
▁निकल 598417
▁വളരെ 598211
▁अपराध 598107
णं 598079
▁ఉంటుంది 597952
▁ದೇಶ 597909
▁नीचे 597888
▁நிய 597849
रै 597813
▁कृत 597749
ꯔꯥ 597516
▁देलक 597484
ଦ୍ 597462
▁ਅੱਜ 597375
▁கி 597362
ாட்டு 597330
▁மாற்ற 597310
▁कॅ 597302
▁পরে 597224
ாத் 597218
▁കഴ 597176
▁نام 597173
താണ് 597130
নাই 597114
▁शत्र 597102
▁हालांकि 597061
end 596717
ভে 596629
▁صحت 596565
୍କ 596370
pa 596344
▁पत 596329
ক্লি 596251
▁কৰ 596204
▁ꯐꯖ 596160
▁মাই 596144
జ్ 596043
पणे 596005
ꯗꯅ 595684
्म 595658
▁నాకు 595534
▁وچ 595469
ట్టి 595435
▁মখা 595149
▁ട 595022
লু 594942
▁विविध 594867
ଇ 594718
▁ꯕꯤ 594567
ep 594509
▁ꯍꯟꯅ 594504
▁மெ 594483
ائل 594461
▁چیز 594448
▁फी 594361
പ് 594349
▁both 594321
योग 594293
▁अस्पताल 594160
V 594102
్రీ 594090
▁नवीन 594083
▁city 594012
▁गर्दछ 593857
▁ചെയ്ത 593615
న్నారు 593611
ிழ 593585
லின் 593545
▁रोक 593517
▁प्रशिक्षण 593392
▁ଯେଉଁ 593390
▁इंडिया 593366
ଶ୍ୱର 593230
ion 593162
▁ᱚᱞ 593100
ಘ 593055
▁இருக்கிற 592976
▁لک 592943
▁रूपसँ 592627
ٲو 592512
ු 592493
▁বৃদ্ধি 592374
ிருக்க 592310
कल 592235
▁ಸ್ಥಳ 592129
ढा 591987
वाणी 591927
▁ಇದನ್ನು 591894
युक्त 591802
ामि 591788
▁इसका 591728
▁आशिल्लो 591685
ुरु 591678
▁બી 591666
▁ਛ 591570
▁set 591559
▁કાર્ય 591546
ன்று 591484
▁ꯑꯃꯨꯛ 591412
▁দিকে 591366
▁संरचना 591164
▁कला 591049
▁ᱵᱮ 590836
ින් 590834
▁बाव 590800
▁ਬੇ 590663
▁حاصل 590510
▁फु 590470
▁जायखौ 590393
▁வேலை 590246
ડે 590104
ಸು 590096
▁ମୋର 590076
▁ਬਿ 590026
ੁੰ 590008
ારા 589857
11 589828
ans 589770
▁అన్ని 589759
చే 589737
▁वर्तमान 589717
▁_ 589672
▁நிறுவன 589543
▁जहां 589463
ंगे 589404
▁ꯄꯨꯛꯅꯤꯡ 589364
కే 589181
தம் 589173
▁ಟ 589109
▁টে 588991
▁సు 588953
न्ते 588879
▁ہند 588779
▁ଯଦି 588773
▁लाल 588766
▁இஸ் 588632
▁மாத 588598
ally 588597
▁اچ 588576
ram 588416
▁सङ्ग 588341
ানের 588326
ന്ന് 588265
▁second 588232
▁झा 588080
વાનો 587966
▁राष्ट्रपति 587921
ల్ల 587850
દ્ 587628
▁ਚਾਹੀਦਾ 587626
▁ତେବେ 587537
യില 587521
ಲಿಯ 587518
ٲری 587432
▁गलत 587233
▁તેમણે 587183
બા 587162
▁অ্যা 587137
ਾਰਾ 587055
ંક 587024
ਕਰ 587022
▁বিশ 586999
▁کٲم 586948
▁अशी 586847
▁اہی 586684
▁part 586647
▁बैठक 586504
੍ਹ 586452
▁സമ 586451
▁অনুস 586434
কনি 586387
देव 586355
qu 586296
▁जुड़ 586285
▁माह 586243
▁పో 586187
मुख 586105
ంగ 586079
▁খুব 586071
▁home 585764
స్త 585694
ꯇꯣ 585580
▁ਖੇਤਰ 585424
▁ꯁꯦꯜ 585304
▁ਬੁ 585255
ારો 585147
▁होर 585129
▁जोड 585100
खो 584973
▁நேர 584959
▁बिल 584915
क्षित 584640
▁ಅವರಿಗೆ 584634
▁ᱵᱷᱟᱨᱚᱛ 584252
ಮಾನ 584157
▁ਕਾਰਨ 584095
▁अफ 584086
▁’ 583908
▁पर् 583866
ென 583836
▁നോ 583770
▁If 583750
are 583599
▁സാ 583577
जार 583503
▁जीवित 583433
সং 583385
▁ആദ്യ 583356
▁देता 583322
▁ইস 583123
▁ତାଙ୍କୁ 582947
▁मात 582927
▁करय 582885
▁पात्र 582820
কো 582769
▁खान 582769
வரு 582729
ಕಾ 582720
ஆ 582599
▁रोज़ 582577
ലും 582569
▁वापस 582406
▁പേ 582396
▁नीति 582393
▁hian 582159
ించారు 582075
ெய 582071
▁वारी 582019
▁پنٛ 581992
మును 581688
▁বিষয়ে 581670
खां 581657
▁bynta 581551
▁बांध 581510
▁करूँ 581454
▁പഠ 581401
▁ᱟᱨᱦᱚᱸ 581168
W 581141
ণ্ 581131
▁सवाल 581072
ਡ਼ੇ 580996
▁ᱨᱟᱡ 580948
wei 580692
රු 580655
▁kyn 580632
سو 580574
▁تاکہ 580536
যুক্ত 580518
र्ष 580435
▁മേ 580190
▁करपी 579899
ന്ദ 579897
▁సమా 579846
▁அர 579761
▁চাং 579710
ल्ले 579674
▁ஜன 579601
ೋಗ 579555
▁बाहागो 579517
ꯌꯥ 579484
▁Ha 579383
एँ 579354
▁लगता 579126
ক্সন 579030
▁जांच 579015
▁धनु 579007
▁भेल 578797
▁हाया 578735
জ্ঞা 578718
▁मुल 578480
▁গতি 578409
زٕ 578388
නා 577981
▁Th 577976
ಿಕೊಳ್ಳ 577946
ଥିଲା 577923
ൂർ 577824
ାଗ 577807
ڪی 577736
কারী 577733
ଜ୍ଞ 577700
ப்பத 577660
▁ਵੇ 577596
▁জে 577534
ಚ್ಚ 577533
രിക്കും 577461
▁ਝ 577444
▁అయితే 577422
ꯃꯦꯟ 577236
▁নুং 577068
▁एकरा 577013
▁ایم 576824
પ્ર 576770
▁मजबूत 576749
ौल 576732
▁समज 576681
▁sc 576507
ib 576364
▁যো 576230
▁৷ 576208
ලා 576194
▁रचना 576133
ᱤᱡ 576132
▁करग 575991
ામ 575824
ating 575796
ගේ 575786
▁2013 575773
▁ৱাফম 575721
▁ଯେପରି 575669
ਵਾਰ 575564
▁कम्प 575564
దే 575481
▁ꯀꯦ 575456
ning 575426
ட்டில் 575265
▁સામે 575232
▁خوش 575167
▁जीत 574969
रूपेण 574903
ीं 574870
एको 574860
▁অৱ 574670
▁உண் 574601
▁dang 574588
▁فن 574557
েরা 574548
जित 574506
वस 574479
▁upon 574454
ꯥꯡꯗ 574424
▁ර 574203
▁ಇತರ 574120
ృ 574101
▁आशिल्ल्या 574085
▁भायर 574041
▁२ 573988
▁took 573663
▁જાણ 573632
▁درمیان 573617
▁तह 573501
▁അട 573475
पात 573456
▁સો 573301
ವನ 573288
80 573222
▁মনুংদা 572903
▁تہنٛد 572892
▁ಸೆ 572838
ික 572791
படி 572773
▁କରିବେ 572614
ाते 572606
▁தர 572587
▁جب 572517
▁ro 572484
▁निवास 572438
▁एहन 572378
▁بڻ 572352
▁ਪੀ 572292
ଘ 572249
हां 572105
▁இல 572043
ड्र 571750
16 571744
ികള 571675
রোই 571656
▁ନିର୍ 571612
▁उहाँ 571483
ਜ਼ੀ 571410
▁ನೋ 571393
▁ط 571368
▁উচিত 571275
ழ் 571204
बाव 571127
▁ক্র 570979
க்கொ 570854
दीं 570791
▁ସମ 570560
स्टर 570542
क्षण 570509
फ्र 570444
▁নুংশি 570355
ையா 570174
तिक 569926
েশ 569446
▁લો 569372
▁खातर 569354
▁جواب 569278
▁द्र 569218
▁ਕੀਤੇ 569119
▁ದೊಡ್ಡ 569018
our 569001
▁आफ 568982
▁நிலை 568952
▁ꯋꯥꯏꯗꯒꯤ 568852
ڙی 568816
ிகளில் 568805
ಬ್ಬ 568664
▁கூட்ட 568642
▁भविष्यति 568595
സ്ഥ 568531
स्ट्र 568479
▁ایس 568399
▁උ 568339
▁गंभीर 568336
දා 568329
▁नस 568247
40 568191
ᱚᱠ 568032
ૈ 567844
ಿಗಳ 567712
▁तरफ 567642
▁இற 567338
▁পৃ 567038
▁ಹಾಗೂ 566779
ꯇꯥꯛ 566776
▁ꯃꯁꯤꯅ 566480
▁इन्सान 566374
▁प्रिय 566049
ಪಿ 566044
जय 566020
▁लोगोसे 566007
▁ചെയ്യുന്ന 565878
கிறேன் 565842
▁തുട 565813
▁طرف 565748
ಲಾಗುತ್ತದೆ 565677
oc 565540
ढे 565408
ਕਲ 565408
▁ꯃꯔꯛꯇ 565376
उनि 565326
▁പോക 565022
▁বিষয় 564957
▁पर्व 564944
▁சொ 564886
ನಲ್ಲಿ 564858
▁जेराव 564620
▁எண்ண 564565
▁Shri 564547
ari 564533
வின் 564230
▁मल 564161
ಡೆಯ 564159
▁নেই 564071
हम 563974
સ્ત 563874
▁ਬਣਾ 563859
▁ಮೆ 563852
ਪਾ 563843
த்தையும் 563728
ुद 563585
লিক 563350
▁फेर 563299
పించ 563203
▁ꯋꯥꯈꯜꯂꯣꯟ 563068
▁অক 563041
▁હા 562992
पक 562988
▁வெளிய 562833
▁खाली 562779
▁നിയമ 562771
▁ಬೀ 562541
▁வாழ்க்க 562452
▁মূল 562381
▁எண்ணிக்கை 562317
▁ہون 562314
राई 562212
▁ختم 562116
▁समाप्त 562090
తులు 562036
▁Ar 561915
▁मुंबई 561708
▁वार 561547
▁वास्तव 561499
ਉ 561495
▁स्थाप 561465
ake 561462
▁കി 561373
▁بادش 561358
▁এক্স 560962
▁ਵਜੋਂ 560823
▁మో 560773
▁ਮਨ 560772
യ്ക്ക് 560708
▁સી 560708
്മ 560689
▁اندر 560658
प्ट 560588
ᱛᱚᱨ 560584
वृ 560580
ᱷ 560574
ꯁꯤꯡꯒ 560556
ளுக்கும் 560496
▁அல்ல 560363
▁खालामदोंमोन 560330
ರದ 560228
▁ജീവ 560098
ಜ್ 559967
ئن 559961
▁येत 559935
गोनां 559886
▁ڇاڪاڻ 559744
▁নক 559668
▁செய 559609
▁फराय 559572
▁घेव 559489
▁परस 559457
▁இந்தியாவில் 559416
▁बच्चे 559324
थिं 559322
കർ 559322
▁எல்ல 559290
ನಾದ 559122
▁வில 559117
ଠାରୁ 559013
▁स्वच्छ 558903
/- 558897
▁जहाँ 558884
▁ଦିନ 558872
াৰণ 558743
▁शुद्ध 558685
▁गिर 558682
▁इत्य 558681
▁उपरि 558664
ایو 558648
▁तार 558619
▁அவை 558532
ice 558528
▁उपचार 558528
ത്തില 558193
▁धी 558129
රි 558102
ौर 558100
टेड 558068
▁হায়বা 558040
red 557991
▁ചേ 557987
▁ویا 557976
టు 557961
▁அம 557867
▁வை 557855
▁জান 557815
▁ꯍꯥꯏꯕ 557772
ક્ત 557764
▁ᱥᱟᱹᱦᱤᱛ 557656
ණ 557629
▁नग 557387
्याच्या 557358
▁యా 557202
వచ్చు 557144
▁وار 557107
▁ஏன 556984
▁हित 556929
ꯨꯝ 556860
▁ꯃꯗꯨ 556788
▁حکومت 556781
چو 556769
േറ്റ 556755
▁sngi 556744
ෙන් 556715
▁மதி 556503
তু 556468
ರುತ್ತದೆ 556441
-20 556373
▁त्यहाँ 556359
▁2008 556191
ೇಶ 556182
▁ದೇ 556113
ਛ 556020
▁കേന്ദ്ര 555984
▁बुद्धि 555898
▁பகு 555880
▁नेटवर्क 555871
▁হায়রিবা 555861
▁कोश 555858
▁What 555846
▁ꯑꯃꯒꯤ 555804
▁ಮಾಡಲು 555777
▁પો 555714
▁কনা 555664
▁आमच्या 555640
▁লাভ 555532
▁फाइ 555424
िटी 555269
▁விட 555265
▁ಪ್ರಧಾನ 555264
்து 555250
मः 555162
▁ꯅꯍꯥꯛ 555148
নার 555144
र्द 555106
ിലേക്ക് 555062
ling 555031
चित्र 555005
▁येम 554780
▁पांच 554533
▁ਸੁਣ 554502
ಾಹ 554485
▁হিচাপে 554471
ੰਡ 554468
नात 554282
ହା 554185
ಎ 554133
▁கண்ட 554125
ർക്ക 554108
▁মরী 554108
▁ঐখোয়গী 554079
▁प्राकृतिक 554072
▁தனி 554071
द्धा 554035
முக 553995
भिः 553945
نۍ 553550
▁ವೈ 553460
▁बने 553452
▁చేసిన 553401
▁মহৈ 553298
ರ್ಯ 553266
ించి 553245
িল্ 553206
▁ঠিক 553175
ছো 553107
▁कळ 553001
▁تھو 552953
ലോ 552885
क्ता 552801
হিত 552652
▁வேறு 552632
▁इच्छा 552591
▁બનાવ 552491
▁जनता 552486
रिंग 552219
ிற்கு 552147
▁પૂ 551788
▁প্ৰা 551758
▁என்னை 551581
▁ಬಾ 551506
ડો 551493
▁सक् 551490
▁வழி 551459
▁अनुमान 551377
लाक 551279
▁मज़ 551160
പ്പെടുന്നു 551079
▁हटा 551079
ue 551042
ꯥꯟꯅꯕ 551024
અ 551018
▁head 550985
▁टाइम 550984
▁त्यो 550867
னும் 550731
▁ಕ್ 550616
▁much 550599
ஜ் 550410
्लै 550062
▁वजह 550027
▁ને 549982
▁बनाए 549958
▁ہے۔ 549942
ତୁ 549877
ess 549834
ാത 549732
▁भीतर 549705
▁गरीब 549584
ظم 549530
ਾਇਆ 549483
▁ಮಾತ್ರ 549483
ration 549448
वला 549405
▁ഞ 549335
ിയും 549309
hu 549251
▁ꯀꯌꯥ 549240
▁मालिक 549206
▁ਪੁੱਤਰ 549191
ਲੋ 549160
▁സ്റ്റ 549031
ुम 548907
જે 548864
▁ઉત્ 548862
▁சென்ற 548807
▁ਹੱਥ 548641
ଶୁ 548584
▁खर्च 548520
▁অমত্তা 548383
ଦି 548325
▁ರಾ 548319
▁जाग 548298
യു 548294
ଁ 548245
ورن 548214
▁ಅನೇಕ 548119
য়াই 548027
व्ह 548003
▁কৰক 547980
▁माइ 547915
க்கள 547724
مل 547703
ृत 547610
▁ᱞᱟᱹᱲᱦᱟᱹᱭ 547548
▁ন্য 547398
ர்களின் 547369
তর 547329
▁ലോക 547155
▁including 546816
ेंड 546811
▁च्या 546749
▁அக 546668
ক্ষে 546617
▁खोल 546568
▁वेळ 546455
▁مودی 546405
▁आकाश 546400
▁शुरुआत 546338
▁அவரை 546334
▁family 546074
men 546022
▁ग्रामीण 545964
ग्रह 545956
▁ꯁꯦꯟ 545956
▁कोर 545822
▁सन 545816
▁युवा 545772
▁सोलाय 545705
▁निश्चित 545693
▁ꯁꯦ 545620
▁थाह्र 545538
ড়ে 545509
தால் 545435
▁ସେମାନଙ୍କ 545336
மார 545232
▁भ्र 545227
▁வந்து 545211
یڪ 545076
▁Ab 544997
▁غیر 544726
ింది 544725
ಪು 544648
▁ਵਾਰ 544613
తున్న 544584
ᱟᱹᱨ 544460
▁परंतु 544406
ासन 544379
▁ꯈꯨꯗꯤꯡꯃꯛ 544356
होत 544245
सरी 544242
ଦୀ 544187
ꯁꯤꯡꯕꯨ 544156
▁আধ 544111
▁মোদী 543984
▁জীৱ 543953
▁जोंनि 543767
▁पुनः 543737
मान् 543720
ंथ 543581
▁ಹಾಕ 543573
▁आँ 543571
▁कां 543566
ടിയ 543535
्याक 543499
▁भव 543489
▁रै 543461
▁अवसर 543286
ꯥꯜ 543120
▁રહી 542791
▁ಅರ 542790
▁करण्यात 542651
రం 542646
▁ꯑꯦꯟ 542528
xnr 542420
धु 542351
▁away 542323
▁प्रोग्राम 542305
▁তেওঁলোকে 542280
▁সূ 542244
▁సా 542211
▁समें 542167
▁ਰੂਪ 542122
▁ಬೇ 542083
ധി 542063
▁कहि 542045
▁নোং 542017
▁अवा 542001
ors 541964
শুবা 541963
नेस 541948
▁निर 541931
রম 541841
▁आशीर्वाद 541805
ವರ್ 541779
▁व्ह 541734
▁ماڻ 541675
ꯦꯟꯗ 541532
▁வார்த்த 541509
িব 541437
▁tra 541331
▁এনে 541328
▁എനിക്ക് 541325
▁ٿ 541210
▁ਨਾਮ 541172
▁high 541129
▁साफ 541083
▁ஷ 541070
▁बेहतर 541033
▁ഇപ്പോൾ 540997
्ता 540986
ಂಟ 540678
▁માં 540678
▁देखि 540582
▁فراہم 540581
ड्ड 540376
▁गरेका 540265
▁பொரு 540167
▁گے 539983
▁ಏನು 539945
মণ 539923
ക്കാൻ 539854
ण्याची 539679
▁योगदान 539610
▁घड 539571
▁మె 539528
▁बढ़ा 539493
dia 539404
പ്പെട്ടു 539363
योः 539255
▁कौन 539239
▁सुन्द 539177
ಟರ್ 539105
ارت 539066
▁मोह 539059
▁ꯊꯥꯗꯣꯛ 538976
▁അറിയ 538852
▁केलें 538785
द्वारे 538783
ক্র 538555
▁ᱱᱟᱦᱟᱜ 538492
বসু 538478
▁খে 538156
▁நே 538111
उर 538052
▁जें 538051
▁वास्तविक 538005
rah 537965
▁स्थानीय 537876
ാഹ 537661
▁કુ 537649
ڪل 537559
১ 537552
▁ꯆꯥꯎꯈꯠ 537480
ृति 537474
▁हस्त 537435
▁मुख्यमंत्री 537429
ത്രം 537409
ीत 537385
▁মোক 537362
ख्य 537317
▁प्रथम 537316
▁પોતાના 537273
▁ꯍꯥꯏꯔꯤ 537264
▁முறை 537200
▁আরও 537144
వీ 537112
▁যেতে 537037
▁जादों 536997
▁ਬਣ 536830
▁No 536797
-0 536776
ள்ளன 536691
▁वद 536688
▁جسم 536668
अप 536630
▁ದೇವರ 536380
▁स्थापना 536365
▁ನಲ್ಲಿ 536299
्नु 536291
▁पार् 536186
ম্নবা 536155
▁دۄ 536060
▁நேரத்தில் 535956
▁లేదు 535834
▁बाँ 535826
▁প্রথম 535825
टात 535710
য়ো 535701
ন্দ্ৰ 535658
▁ਮੇ 535648
▁असी 535637
▁ಮಾಡುವ 535542
ریو 535493
▁रूपा 535448
णाऱ्या 535442
av 535355
▁बच्चों 535291
▁మధ్య 535246
▁ਘੱਟ 535229
▁அரு 535220
▁father 535161
খে 535111
▁अना 535067
▁झाली 535052
झा 534900
▁ಕಾಲ 534879
ायला 534772
▁முடிய 534699
▁உறு 534689
ल्ली 534683
▁രാ 534636
হু 534566
▁बीज 534395
ഷ്ട 534330
ಂಪ 534277
শক 534176
▁बजे 534163
धारण 534136
▁மாவட்ட 534097
▁70 534027
କାର 533936
▁పొ 533827
▁زیادہ 533714
▁ییلہٕ 533696
ുകളും 533688
▁गोरो 533660
▁रस 533592
▁ଅବ 533557
ರೆಯ 533372
▁pre 533338
ඩ 533333
▁ಎರಡು 533283
▁जम 533245
▁अमेरिकी 533224
▁होयो 533199
▁ଯେତେବେଳେ 533185
ળા 533117
ूरत 533049
▁ओड़ेआ 532942
▁उत्पन्न 532913
▁वर्षे 532737
னின் 532729
▁ଦେଖି 532593
▁सेट 532518
▁ঠ 532434
▁জ্ঞ 532392
▁लगातार 532342
க்கிறது 532284
▁आह 532196
ারের 532054
▁દર 531993
മെ 531920
▁दिला 531879
▁তুল 531739
▁कट 531631
ংনা 531579
ys 531563
▁आसता 531258
▁વે 531223
గం 531079
োনা 531073
രിച്ചു 531055
ᱠᱟ 531020
▁পুর 530961
▁90 530768
লৰ 530680
( 530675
ୋକ 530646
▁شع 530634
▁जाण 530533
his 530420
▁વચ્ચે 530416
नं 530402
चक 530170
▁ज़रूरत 530162
▁पत् 530084
▁অস 530081
ঙাই 529970
ાળ 529967
▁स्टार 529919
ರಿಕ 529910
ଳି 529901
ೋದ 529881
▁po 529677
ஸ்ப 529638
▁موجود 529616
▁ఇప్పుడు 529600
▁कृत्वा 529568
ப்பா 529531
▁کل 529530
नांगौ 529514
▁प्रजात 529421
ᱫᱷ 529392
▁kata 529389
▁ମନ 529321
ുമ 529306
ಶಾಸ್ತ್ರ 529283
ists 529228
▁પરિ 529220
▁ਆਮ 529150
▁केलो 528979
▁ᱚᱡᱮᱛᱮ 528968
▁পর্যন্ত 528885
▁મળ 528842
ிருந்து 528830
ദ്യ 528805
ꯌꯟ 528760
▁चाहते 528750
▁shah 528622
▁ପାଇ 528459
▁बच्च 528145
▁دن 528108
वो 528082
િટ 528060
▁again 528059
▁समु 528046
▁ಮೂಲ 528032
ೆಗಳ 528020
ٹن 527997
▁उपाय 527860
▁एतत् 527822
▁மறு 527764
१ 527753
▁নৎ 527686
▁ఉన్నాయి 527669
ೀರಿ 527609
ন্সি 527349
▁तेज 527111
▁· 527062
rei 526962
▁पहि 526949
मेव 526865
▁لیکن 526737
▁Al 526720
▁ಅರ್ 526573
▁کرتے 526569
▁व्यापार 526569
ষ্টি 526446
ڑن 526392
▁हुन् 526392
▁છીએ 526281
▁அதே 526184
▁ಕಾಣ 526169
▁ꯋꯥꯔꯤ 526048
ൗ 525848
▁बोर 525769
▁पित 525637
െന്നും 525635
▁भिन्न 525570
वृत्ति 525468
▁ᱮᱥ 525452
ಾಗಿದ್ದ 525395
सान 525374
▁four 525325
▁বিজ্ঞ 525288
▁بل 525261
▁विया 525257
थियाव 525223
▁गोदान 525216
▁X 525153
▁dis 525083
ांतल्या 525004
પ્ 524921
ಸ್ಥ 524875
स्ता 524864
▁మే 524859
▁দূ 524757
ുകള്‍ 524720
▁ᱰᱟᱦᱟᱨ 524632
പോ 524583
▁লাগিব 524521
्यांच्या 524481
▁سندس 524212
▁माहिती 524190
▁दर्श 524145
▁நிர 524133
▁put 523985
▁give 523972
▁کیس 523788
चि 523743
▁பயன்ப 523715
▁হোৱা 523518
ಬ್ 523481
ர்ச்ச 523219
ವನು 523167
▁ڪري 523087
▁गज 523081
بو 522930
ನಿಗೆ 522840
▁நான 522714
्ह 522657
▁साक्ष 522653
▁वाय 522543
▁રાજ 522523
▁want 522311
लैंड 522302
ലം 522211
▁येथे 522211
▁कोड 522141
▁અહીં 522130
▁विध 522099
▁हॉ 521914
▁ꯃꯨ 521908
ল্ল 521895
ten 521878
▁জানি 521829
পন 521771
▁काड 521767
▁କା 521755
खंड 521734
▁रैखा 521714
▁गांधी 521588
ಳೆ 521580
्रेड 521576
▁નામ 521571
ন্থোক 521395
ꯕꯔ 521312
▁মথৌ 521147
▁ইং 521022
▁ഞാന്‍ 520907
▁বিশ্ব 520775
▁অনুম 520722
▁ஒரே 520679
ᱩᱭ 520640
মৰ 520577
ामे 520496
▁అంద 520444
ননা 520440
art 520278
▁कुमार 520162
ꯇꯤꯛ 520136
ழிய 520082
गि 519979
प्रमाणे 519958
ꯌꯔ 519812
▁जेह्दे 519780
ायल 519749
▁ಮಕ್ಕಳ 519668
രിക 519552
جا 519291
▁ప్రారంభ 519202
ꯇꯦ 519056
▁32 518931
▁ৱাখ 518869
সী 518861
▁मिनि 518756
ঙ্ 518609
ಗೋ 518596
▁तय 518550
ٺو 518287
▁শী 518246
▁own 518068
▁देखील 518048
കു 518006
▁भारी 517997
▁बिथांनि 517989
▁ಒಬ್ಬ 517958
ଣ୍ଟ 517956
▁লম 517941
▁વ્યક્તિ 517868
త్ర 517787
ालो 517711
ల్లో 517709
▁ਜਿਨ੍ਹਾਂ 517696
▁मानो 517660
▁পীবা 517634
िले 517627
देशस्य 517396
▁विभाज 517365
సం 517355
▁হায়ব 517229
▁بند 517211
স্তি 517156
▁ಕೇಂದ್ರ 516848
▁महीने 516745
ᱟᱵ 516720
▁ക് 516575
ப்பது 516565
▁मांग 516564
▁తో 516513
ங்கிய 516511
▁३ 516487
▁रखा 516482
▁प्राचीन 516464
▁മഹ 516430
▁আহি 516425
▁শীজিন্ন 516416
কপা 516380
▁गांव 516375
▁इंटर 516365
▁मिन 516347
ിലും 516211
ᱤᱧ 515868
▁অৱা 515724
▁চাও 515690
अल 515655
्टर 515600
▁राजनीतिक 515586
▁வரும் 515563
खाय 515553
▁ونان 515520
▁मुँह 515518
তাৰ 515499
ীক 515479
▁उत्त 515446
▁പുതിയ 515363
ॉट 515358
सद 515354
ദേശ 515354
ോട് 515348
ಿಕೆಯ 515319
ꯗꯨ 515204
▁چو 515122
▁Then 514994
▁कैल 514970
ନ୍ଧ 514917
▁رس 514570
▁ନା 514545
▁மகிழ 514428
اج 514419
▁କରନ୍ତୁ 514407
વાદ 514395
▁तव 514334
▁কন 514283
دان 514255
▁રો 514158
વાનું 514152
▁ঙসি 514106
▁right 514070
▁খ্বাইদগী 513971
▁இணை 513862
▁team 513843
ᱚᱢ 513796
▁அதிகார 513794
me 513681
▁घट्ट 513634
सभक 513608
ೀನ 513579
▁ਮਨੁੱਖ 513482
▁अत्य 513465
ൊരു 513401
ಗೊಂಡ 513300
ിക്കു 513263
్యూ 513258
▁ഡി 513256
▁பார் 513078
▁करेगा 512914
▁इच्छ 512850
esh 512822
ೊಬ್ಬ 512821
▁80 512762
ହି 512736
ਧੀ 512657
▁மீது 512650
▁پٲٹھۍ 512644
▁குழு 512513
▁वुन 512443
▁नाहीत 512435
▁മൂ 512413
ંચ 512382
▁இதை 512306
▁माना 512300
ിയെ 512297
▁सलाह 512267
▁love 512159
▁பதி 512154
▁समावेश 511969
ওঁ 511910
▁नेम 511905
ांगौ 511891
▁So 511850
▁येथ 511840
▁end 511753
ثر 511735
▁وال 511574
▁پان 511509
দবনি 511493
▁ڪر 511479
मात् 511363
ꯊꯠ 511280
▁મિ 511248
▁அவர்களை 511237
▁মদুদি 511202
▁உள்ளன 511172
▁मुक्त 511156
▁पहुंच 511118
▁නි 510999
▁खेत 510944
▁आधारित 510940
ಷ್ಠ 510868
▁ಕರೆ 510765
▁દેશ 510758
ர்ப்ப 510726
ভূ 510651
▁আৰম্ভ 510579
▁सुनिश्चित 510544
▁আর্ 510440
▁दिनों 510362
▁تبدیل 510341
शो 510292
▁سٕنٛز 510268
▁Is 510220
▁اہم 510187
ద్ధ 510159
▁ബന്ധ 510154
▁help 510093
▁দেখি 510058
▁ஈ 510043
▁বৃ 509979
▁କଥା 509958
▁రాజు 509877
▁ટે 509847
స్తున్న 509619
काम 509613
▁મુ 509528
ंच्या 509522
ᱯᱟᱨ 509400
▁سٕ 509388
han 509356
▁نفر 509238
वेश 509234
نٹھ 509142
ല്യ 509107
సీ 508945
▁স্বাস্থ্য 508835
▁पहचान 508765
તે 508731
கொ 508413
▁ಎಂದ 508168
ফে 508089
▁ନେଇ 507969
▁तिमन 507955
▁सोड 507939
aj 507889
ضی 507810
▁হক 507775
▁ତେଣୁ 507734
લિ 507550
ಸೆ 507507
▁चलि 507444
ih 507416
▁ਰਾਮ 507170
ள்ளனர் 507100
▁சொன்ன 506843
▁ମେ 506804
▁ᱞ 506776
ꯁꯥ 506748
ேய 506744
వం 506735
▁पति 506730
▁त्यसपछि 506706
కరించ 506690
হনবা 506683
▁ସେମାନଙ୍କୁ 506620
ಅ 506567
▁kyr 506563
▁kat 506559
▁ہوں 506259
▁घोषणा 506170
▁முற 506091
▁ᱢᱟᱲᱟᱝ 506088
డా 506050
▁खात 506036
▁আনন্দ 505957
-19 505723
▁కి 505610
லோ 505583
▁مال 505456
▁ઘણા 505412
▁ल्या 505308
▁ꯃꯥꯂꯦꯝ 505304
মের 505294
▁थायो 505230
डू 505099
▁नोंथाङा 505097
ਖਾ 505068
ᱮᱨ 505056
ङै 505019
ार्ड 504980
ण्यात 504887
डिया 504755
▁ꯑꯆꯨꯝꯕ 504752
▁കല 504722
▁بعد 504708
▁লৈরিবা 504638
▁Mo 504636
ंडी 504629
ಠ 504619
▁જરૂર 504619
▁অধ 504541
ുകളുടെ 504536
णीय 504470
▁form 504433
▁ഭാഗ 504347
▁गेजेर 504314
ᱠᱷ 504224
▁दृष्टि 504206
yr 504135
▁ਕੋ 503952
▁તરફ 503940
15 503872
▁given 503789
बद्दल 503708
▁திரும்ப 503662
தும் 503661
තු 503660
ர்களை 503630
▁ہٕ 503600
▁ইউ 503536
70 503499
த்தைப் 503416
▁ಮೂ 503346
▁प्रोत्साह 503230
▁चाहे 503187
▁କୋ 503076
▁hynrei 503016
▁भए 502919
▁पस 502903
▁कहाँ 502859
ಷ್ 502777
▁ꯍꯥ 502752
▁सगळे 502657
▁ꯃꯇ 502608
ुआ 502520
▁बेर 502487
▁ڪندو 502465
▁My 502464
▁उपकरण 502383
▁दुई 502302
ूड 502230
▁ਵਰਤੋਂ 502170
गन 502143
▁सहायता 502065
தான 502042
രിച്ച 502032
▁ಅವರನ್ನು 501855
▁ଯି 501757
▁बॉ 501684
▁दुःख 501662
▁టా 501654
ধি 501632
▁Man 501620
▁गोग 501545
▁సె 501524
ुद्ध 501498
▁وڌ 501232
▁आओ 501158
▁करणे 501118
চৎ 501041
▁सोलों 500995
▁होनो 500828
ꯂꯥꯏ 500476
▁લા 500435
▁ꯅꯥ 500432
▁ਪ੍ਰਾਪਤ 500430
▁भन्नु 500393
ഴ് 500388
▁కూ 500371
ிறது 500348
▁car 500247
હી 500225
▁भाष 500223
ச்சு 500213
▁कब 500139
▁ꯚꯥꯔ 500112
মত 500103
▁नर 500058
!! 500036
▁ಅದ 499883
▁# 499875
یان 499848
| 499777
ਉਂਦਾ 499576
▁आड 499538
▁देखने 499439
▁এল 499398
▁ꯃꯈꯥꯗ 499252
ताक 499225
2, 499197
ଣୀ 499116
▁ಏನ 499088
ᱨᱮᱥ 499084
▁ऐसी 499072
सेन 499034
ਿਰ 499015
्ने 498951
ियाव 498784
▁माखासे 498707
hai 498655
ile 498576
ਸੇ 498512
▁অর্থ 498493
▁ಸ್ವ 498491
▁संस्कृति 498463
ust 498422
▁وڃی 498372
ूस 498344
▁उत्पाद 498280
▁ਸ਼ਾਮਲ 498214
▁بے 498138
श्वर 498035
പു 497992
▁women 497882
ැ 497798
تر 497756
▁At 497645
▁ਕਰਕੇ 497596
▁उहो 497556
ꯗꯕꯅꯤ 497284
யம் 497225
▁തെ 497151
▁मित्र 497104
▁ڪجھ 497068
ick 497060
▁ਬਾਹਰ 497037
▁गरी 496992
▁कार् 496988
▁पां 496985
▁لوکن 496940
গ্ 496935
்ப்பு 496915
▁ڪندا 496895
ന്മാർ 496773
▁ಮುಂದೆ 496747
der 496697
ম্বী 496620
▁পার্ 496590
▁دست 496559
ஸ்க 496548
▁गीत 496449
हरे 496442
▁चले 496350
্ৰা 496348
ടും 496263
▁পাঠ 496233
▁ꯑꯍꯥꯟꯕ 496188
ପା 496156
▁হৃদ 496155
ੁੱਖ 495931
▁আইন 495786
ল্প 495714
पद 495566
షి 495221
▁உல 495161
og 495137
▁कल्पना 495074
▁heart 495067
್ರಾ 494666
▁निकाल 494666
ke 494653
ꯂꯣꯟ 494616
▁प्रतिनिधित्व 494574
▁પ્રો 494499
क्रो 494421
▁आसन् 494379
17 494336
ill 494330
▁মাধ্যমে 494326
▁করবেন 494280
ल्यार 494242
▁ਹੋਈ 494232
▁tur 494211
▁असर 494131
ٲئی 494116
हिं 494103
ংস 494083
▁तातूंत 494040
ാസ് 494014
ੈਂ 493917
થ્ 493909
▁பெய 493840
▁ادا 493779
▁ab 493764
▁गरज 493736
▁public 493639
ल्लो 493464
▁ਬੀ 493438
ന്‍റെ 493368
▁ہوئے 493269
▁جل 493202
ala 493173
हान 493048
ड़ों 493013
▁हादोर 492697
ꯂꯛꯄ 492664
▁ಖ 492558
▁লম্বী 492511
▁उत्तरा 492498
▁पेट 492395
▁आवेदन 492386
▁ಭಾರತ 492362
▁• 492351
ଲୋ 492279
ਸਟ 492275
ઓના 492069
▁ബ്ര 492001
નના 491908
ೃತ 491883
▁وڃ 491856
்ச 491723
▁Re 491691
▁সংখ্যা 491650
لام 491412
▁ಅಲ್ಲ 491262
▁ডে 491208
ਬਰ 491147
வதை 491107
▁அதி 491102
▁ඇ 491094
ക്കാര 491057
ंचा 490988
▁cons 490965
▁পার 490935
ন্ত্র 490923
ક્ર 490906
ങ്ങി 490898
वासी 490868
ꯔꯛꯄ 490860
ंडल 490516
ത്തിയ 490432
▁पहिने 490418
ോഗ 490417
ಕ್ಕಾಗಿ 490371
▁छान 490340
▁सूर 490323
ful 490321
▁লাগে 490313
බ 490283
▁शास 490279
▁ಬಯಸ 490227
ందు 490150
▁गल्ल 490134
తుంది 490128
▁अधी 490098
ர்வு 490056
▁दर्ज 489993
aid 489768
▁पाणी 489754
ꯀꯦꯜ 489636
শী 489629
▁यावत् 489582
▁बन्द 489559
▁म्हणाले 489512
▁માંગ 489484
▁mo 489424
▁अकिस 489384
▁તેમ 489300
▁ભૂ 489277
▁जस्तै 489212
कालीन 489069
▁तर्हि 489067
കം 488940
▁ಪ್ರದೇಶ 488932
▁நூ 488895
ଡ଼ି 488813
ियै 488625
▁टाइ 488590
▁تہۍ 488476
▁विद्य 488449
ைகள் 488425
▁அறிவி 488402
ದ್ 488227
న్స్ 488223
আই 488202
▁पान 488191
லு 488071
දු 488018
चाल 487993
ત્રો 487970
▁dep 487920
২ 487853
▁आदार 487838
িত্র 487812
न्थि 487794
क्षेत्र 487769
മാണ 487754
▁ಅವು 487569
தான் 487495
ిత 487398
â 487198
▁ھڪ 487159
▁मोबाइल 487028
▁সর্ 486880
یکن 486829
গ্র 486675
▁ମୋତେ 486612
▁namar 486611
▁ஒன்ற 486568
ுடன் 486517
▁கடந்த 486489
▁असं 486458
্যের 486425
ળો 486303
▁ਸ਼ਹਿਰ 486300
िल्ल्या 486286
▁நு 486257
▁चाहता 486197
▁भयो 486185
▁ভিতৰত 486172
▁दोसर 486156
శా 486121
▁نم 486012
▁ഏറ്റവും 485945
▁മി 485904
ंडा 485900
फ्रोम 485764
సిన 485591
▁অধ্য 485548
▁old 485534
▁आहियूं 485520
ക്ത 485503
കളുടെ 485443
▁ڪریو 485416
▁पेश 485403
நீ 485338
▁रिस 485205
▁पहली 485152
▁ঐখোয় 485151
রী 485107
▁ਰੋ 485048
ଥିବା 485000
▁ਕਈ 484911
▁ᱨᱩ 484860
▁পাৰ 484853
▁నే 484714
▁ग़ 484633
வர்கள 484576
ষে 484372
▁पैसे 484347
3) 484296
▁बस् 484296
▁ওফ 484271
شو 484267
▁चीज 484260
ట్టు 484234
▁इसमें 484193
▁भवन 484021
▁ഇല്ല 483920
ଡି 483789
▁युग 483766
کار 483747
▁ইম 483745
ct 483662
पछि 483646
ꯍꯟꯈꯤ 483612
খল 483500
▁news 483500
ائي 483461
▁آسہٕ 483436
▁दिने 483370
ೆಹ 483333
आरि 483289
▁सदी 483260
તું 483175
ೇಕ 483130
▁धा 483088
▁दल 483068
▁اص 483052
▁நாடு 483042
▁बारी 482989
चु 482897
कत 482867
ka 482793
ಕ್ಕೂ 482750
ંધ 482726
కొని 482637
ಿಕೊಂಡ 482619
യുള്ള 482574
▁going 482495
▁गर्नुहोस् 482464
ڙو 482371
▁एच 482326
▁भार 482275
▁এজন 482244
മില്ല 482144
▁করেছেন 482077
జి 482071
▁लौ 481986
▁ক্ষ 481840
ᱳᱰ 481828
▁ରା 481815
▁குறி 481786
▁প্ৰদান 481780
ുമായി 481751
પણ 481609
ிருக்கும் 481588
जिक 481546
సా 481470
▁लेने 481255
▁गाब 481218
धर 481122
▁ಸಂಗ 481115
▁sub 481082
▁प्रशासन 480961
ො 480945
▁കെ 480908
▁2014 480878
be 480795
ons 480784
▁मदत 480738
▁ಆಧ 480560
▁दृश्य 480490
▁तेजी 480424
ಿರಿ 480423
پر 480416
▁जँ 480085
দোক্ 480014
▁بیان 479953
▁mar 479868
▁ಪರ 479744
▁ది 479718
▁अनुमति 479678
▁শব্দ 479414
ിക്കുന്നത് 479391
ாரி 479323
ଗତ 479209
बद्ध 479183
▁शैह्र 479104
খ্যা 479021
نت 478994
▁বাই 478991
▁ਸਾਡੇ 478962
▁जिउ 478948
▁ᱠᱚᱣᱟᱜ 478812
▁بڑ 478767
फ्ट 478754
▁दित्ती 478547
▁ਵੱਧ 478541
▁ઝ 478454
लू 478355
▁res 478225
▁ખો 478205
ਿਲ 478179
▁सारी 478164
lan 478077
ாளர்கள் 477786
▁गेला 477773
▁became 477727
▁ꯁꯤꯖꯤꯟꯅ 477620
▁கவ 477554
▁செலு 477523
▁പോയി 477432
ਧਾਰ 477420
▁বাস 477386
▁প্রে 477353
99 477282
▁विद्यार्थी 477262
यान 477247
▁सभा 476889
▁need 476842
▁आसेआ 476781
▁ਸ਼ੁਰੂ 476759
▁ꯂꯦ 476736
▁दिख 476651
ਸਰ 476598
বক 476583
▁गासैबो 476394
▁উচ্চ 476373
▁कृषि 476354
▁মনা 476347
▁ಮನುಷ್ಯ 476227
▁کٔ 476216
মগী 476135
▁പ്രക 476126
▁शिक्ष 476069
▁સ્થ 476049
▁વધ 475989
▁স্বা 475839
ಿದ್ದೇನೆ 475817
▁రెండు 475750
▁১৯ 475726
ਡਾ 475676
▁ബോ 475631
▁പെ 475613
▁حٲصل 475612
સ્ક 475594
▁করেছে 475481
දි 475422
▁নিজে 475419
কর 475345
▁उद्देश्य 475236
▁बक्ख 475235
ங்கே 475175
▁ಚಿತ್ರ 475134
▁تھی 475064
▁କରିଛନ୍ତି 475059
▁After 475015
▁புற 474922
▁සහ 474862
▁যেন 474769
امی 474732
▁उद्योग 474730
▁गुर 474611
▁भाइ 474556
▁ന് 474412
▁வைத்த 474379
▁धर 474272
▁மாண 473915
खार 473892
ച്ചി 473878
▁सुना 473860
ளவு 473823
▁وۄنۍ 473812
1, 473795
വര 473777
এম 473761
▁ರಾಮ 473728
▁गोर 473717
థ 473469
ುತ್ತವೆ 473395
▁எப்ப 473371
್ಮ 473281
▁समाधान 473237
5, 473172
▁health 472966
ves 472869
▁सिगां 472868
▁among 472842
ait 472835
रेट 472834
▁लाय 472820
ोजन 472764
▁கூறு 472553
്ല 472551
▁पूछ 472503
▁ಅರ್ಥ 472468
र्मी 472438
▁શહે 472423
مر 472391
යා 472366
ற்கு 472361
ोब 472291
िफ 472215
ore 472167
▁ತಿಳ 472124
ꯋꯤ 472088
▁तिच्या 472080
രണം 472071
গদবনি 472051
▁जाइ 472041
▁संगठन 471994
▁ಪು 471990
▁समुदाय 471983
▁Delhi 471922
▁പര 471919
▁நாள 471912
▁ꯑꯌ 471844
ಂಜ 471829
▁गार 471762
ସେ 471723
▁ചെയ്യുന്നു 471703
▁वाच 471550
▁त्याचे 471508
લું 471451
ੁੱਧ 471372
▁దేశ 471368
▁కాదు 471364
▁exp 471224
స్తారు 471085
▁el 471069
▁ସେମାନଙ୍କର 471062
▁وٽ 471022
▁دیکھ 470993
ڌ 470955
▁दाय 470943
निस 470898
▁ꯂꯝꯕꯤ 470860
ಿದ್ದಾನೆ 470813
ండ్ 470574
ാണ 470509
▁प्रती 470502
▁মখাদা 470496
▁नोट 470488
ics 470447
▁ବୋଲି 470406
রেন্দ্র 470368
▁کیونکہ 470299
▁social 470291
▁ꯃꯊꯧ 470276
ంటే 470264
ಣ್ಣ 470207
▁जकाँ 470170
ख्या 470136
▁લાગ 470079
▁आयो 469820
▁ਆਪ 469795
▁भुगतान 469792
▁without 469765
▁खेळ 469709
▁ഐ 469640
▁விட்டு 469585
▁അതിന്റെ 469520
▁ꯆꯪ 469512
▁When 469493
കളും 469486
▁स्ट्र 469474
▁माया 469397
சா 469387
ੂਲ 469304
▁क्लिक 469289
નની 469259
▁बाहेर 469245
ನನ್ನು 469215
ில்லை 469034
ென்ற 468943
স্তু 468558
▁குறித்து 468552
▁सिङाव 468461
ധ്യ 468410
▁ਮੋ 468407
▁later 468342
▁బా 468309
▁पैसा 468299
▁ഘ 468237
▁একা 468235
▁دع 468180
▁എന്നെ 468162
▁തു 468090
▁تھے 467956
ੇਟ 467916
▁संप 467893
ੜੇ 467892
ژ 467824
▁पर्याप्त 467684
▁अय 467614
▁राजधानी 467525
▁sa 467506
▁ವರ್ಷ 467433
ᱟᱹᱛ 467420
یاہ 467396
▁ইক 467377
▁ಪದ 467374
िरु 467341
▁बुङो 467313
▁ইন্না 467297
▁मनी 467288
▁things 467273
னால் 467265
▁१ 467262
▁ض 467258
ಲೋ 467216
ڪن 467158
▁২ 467097
▁மணி 467011
▁ಹೇಗೆ 466932
▁ڳال 466863
▁विना 466858
▁प्राण 466840
▁ಹು 466820
▁বন্ধ 466752
▁જાય 466732
ev 466725
ಾಯಿ 466598
lu 466555
▁ਰਹੀ 466518
അ 466487
पर्छ 466484
सव 466474
த்தால் 466344
वती 466307
ন্তর 466285
▁बिच्च 466155
▁একে 466098
থী 465999
▁കൂടുതൽ 465982
ାଯ଼ 465970
යට 465967
ଠି 465955
५ 465902
ഖ്യ 465835
▁ꯁꯍ 465816
▁ہیک 465788
▁ਉਪ 465770
ꯃꯥ 465736
▁பாட 465537
▁ᱚᱱ 465456
▁प्रसन्न 465394
ണ്ടി 465131
▁द्या 465095
ുകളിൽ 465023
▁جڏھن 464851
एका 464844
लोक 464804
ਸ਼ਾ 464801
মেন্ট 464641
▁ਜਾਵੇਗਾ 464511
▁দেখে 464507
ٲر 464468
▁ڪی 464384
भूत 464332
▁ಹೇಳಿದರು 464040
▁3. 464031
▁जास्त 464018
▁भि 463961
▁તમામ 463953
டைந்த 463939
ণ্ট 463864
▁ইয়াক 463857
▁ବର୍ଷ 463851
िप्त 463840
▁നട 463837
ਰਾਂ 463782
▁অহুম 463779
ുകൊ 463774
▁संगीत 463748
वै 463747
du 463619
▁घेत 463493
▁જોઈ 463319
ಜೆ 463304
ꯕꯗ 463300
▁কেন 463046
▁ਥ 463045
▁ᱥᱮᱫ 463040
▁ਚੀ 463023
क्षक 462975
रं 462853
▁কৰিছে 462718
▁पीछे 462630
डल 462484
ਵਾਨ 462431
▁രാജ്യ 462390
ڻی 462324
▁आबि 462309
▁قسم 462241
▁න 462116
▁यिम 462096
▁नेतृत्व 462067
▁ਆਦਮੀ 462064
एफ 462045
தியாக 462021
▁दस् 461990
ांस 461641
▁कल्याण 461570
▁अजून 461495
▁ब्राह 461471
▁తమ 461441
▁ସମଯ଼ରେ 461392
ంప 461228
গর 461219
▁هڪ 461068
ob 461055
▁اپنی 461047
▁تعمیر 461019
▁சோ 461002
ೂರು 460981
▁स्थिर 460944
▁शकतो 460932
ڪار 460914
▁ಅನ 460782
▁उल 460767
▁म्न्ज़ 460692
▁शकते 460678
مس 460607
काः 460593
ভাব 460450
ಂತಹ 460437
▁आली 460353
ेंद्र 460309
▁కుమారు 460305
ିକ୍ 460249
▁ভূ 460172
▁స్వ 460149
▁another 460084
▁saying 460064
▁trans 460030
▁ہوا 460019
ڈی 459973
▁نمبر 459933
▁खुशी 459888
▁தொடர்ப 459849
▁కలిగి 459791
▁अमृत 459784
টাই 459768
▁পোক 459743
▁सूची 459709
स्मिन् 459700
੍ਹਾ 459638
▁ಪಡೆಯ 459638
▁আপ 459534
▁முன் 459431
▁চাউ 459211
▁2000 459100
ସା 459081
▁جاتا 459000
ક્ષણ 458955
ऱ्यां 458949
ैंड 458924
▁કેટલાક 458922
ᱞᱤᱥ 458864
▁दुर् 458790
▁તેઓએ 458525
ପ୍ତ 458485
▁ᱯᱚᱱᱚᱛ 458464
▁പൊ 458453
ction 458387
▁സംഭവ 458304
ാവ് 458299
ꯔꯝꯃꯤ 458296
▁উঠ 458239
▁સર 458191
୍ରି 458169
▁ছা 458162
ಾಸ್ 458064
▁कनि 457954
ાલ 457888
ട്ടെ 457867
ਾਮ 457846
ல்கள் 457815
▁पक 457798
िलो 457795
▁ಹೆಚ್ಚಿನ 457756
চ্ছ 457752
nt 457738
▁ਗੁ 457730
▁හ 457685
ಗಾಗಿ 457619
दम 457568
▁উপা 457480
য়াম 457479
▁ڪیت 457384
▁منصوب 457356
▁ಯಾರ 457179
▁குற்ற 457044
▁ઉપ 456999
▁Indian 456925
▁কয় 456924
ેર 456880
▁ज़रूरी 456862
▁रान 456840
▁जरी 456755
ज्ज 456751
▁இன்னும் 456741
▁मामला 456665
ன்னை 456619
▁ਵਿਸ਼ 456599
▁ട്ര 456580
ꯔꯨ 456564
▁ग्राम 456563
▁ऐक 456529
▁సీ 456523
▁ky 456505
॒ 456496
▁ഷ 456493
గో 456482
▁ନାମ 456469
▁அதிகரி 456445
▁बरो 456414
കാല 456405
▁त्य 456368
স্থা 456307
▁نسل 456304
ڑا 456228
▁नियुक्त 456215
గల 456198
tion 456165
▁سار 456115
▁লৈতে 456105
▁निजी 456055
▁por 456040
▁නො 455967
ith 455937
్యం 455905
▁गृ 455776
োট 455756
▁پاران 455633
اتھ 455625
▁मुल्क 455593
ಕೊಳ್ಳ 455591
▁बलि 455574
سٽ 455562
▁ᱠᱟᱹ 455548
ds 455283
▁ग्रुप 455261
▁લખ 455231
▁Me 455083
▁ꯇꯣꯉ 455048
▁bur 454969
वें 454953
ग्री 454939
নৈ 454922
ঁচ 454913
▁इंड 454886
ખો 454868
▁ꯄꯥꯎ 454840
ൂടെ 454827
▁सन्द 454801
वळ 454743
રું 454731
ാല്‍ 454654
▁महाराष्ट्र 454601
थिनि 454506
മ്പോൾ 454487
ক্ক 454444
ꯗꯃꯛꯇ 454364
▁सांस्कृतिक 454348
▁law 454261
▁कृतवान् 454239
ونی 454203
▁বিশ্বাস 454144
తం 454121
▁संसार 454080
ੰਦ 454065
▁கடவு 453977
tors 453899
▁एक् 453874
ନୀ 453811
▁बढ 453653
ali 453644
पेक्षा 453615
▁સૂ 453607
▁दर् 453593
▁നല്ല 453507
ಪಾ 453504
க்கூ 453497
▁ꯃꯃꯤꯡ 453380
▁गरि 453344
▁ਲੱ 453289
ᱟᱥ 453264
▁Phi 453204
ਵਾਦ 453201
▁खून 453146
▁पानीं 453130
▁जैसा 453112
▁केन्द्रीय 453083
▁সী 453081
▁ભારત 452962
▁ಕೂಡ 452953
▁പ്രധാന 452928
▁ریاست 452918
କା 452815
▁মশা 452781
▁જ્યાં 452764
▁യാ 452701
▁jingk 452552
ङन 452548
▁प्रचार 452530
लांग 452484
▁ସ୍ତ 452475
स्तान 452432
▁అత 452326
േഷ 452294
▁ᱢᱚᱱ 452260
▁चुन 452250
▁ফাও 452166
▁घरा 452111
દેશ 452102
த்திற்க 452067
▁विकल्प 452063
ोंग 451957
▁ছিলেন 451946
▁ರೂ 451943
▁விரு 451830
शिया 451768
▁దు 451743
▁बदला 451618
▁திர 451618
ver 451615
▁ಗೋ 451606
▁முயற் 451473
्ली 451468
▁محبت 451459
▁माध्य 451418
ਝ 451414
ૃત 451411
▁यसको 451383
▁অয়া 451377
▁लक्षण 451341
দ্য 451332
ச்சி 451317
સ્થ 451307
స్తు 451197
▁যারা 451171
▁पुरस्कार 451034
▁प्रि 451020
બર 450995
▁পাং 450829
भने 450774
ಕ್ಷಣ 450682
ించు 450665
13 450647
▁வாழ 450591
्यस्य 450508
▁वारनि 450484
▁परीक्षण 450444
▁کریں 450439
▁যার 450422
▁मनो 450381
▁हेफाजाब 450379
▁নোৱাৰ 450345
िक्ष 450261
விட 450236
ೆಗಳು 450147
ಾದರೂ 450074
▁കാര്യ 450058
▁चयन 450012
▁भावना 449967
ಲ್ಪ 449867
▁নু 449800
पिता 449775
▁मारी 449626
▁left 449584
▁سون 449554
▁রাজ্য 449543
▁काढ 449476
▁वृद्धि 449313
ूह 449305
▁उहाँले 449139
ত্তা 449102
▁जिव 449069
▁रायजो 449057
35 448988
▁एत 448964
ालि 448918
▁ಮಿ 448913
▁माँ 448899
स्टन 448890
▁ٲ 448799
കല 448784
ासाठी 448681
▁قدر 448597
▁ബി 448578
▁मिलियन 448567
▁दिशा 448438
ec 448292
▁வய 448162
▁কিয় 448118
છ 448076
ക്കോ 448055
▁വില 448055
▁ಪ್ರಾರಂಭ 448034
▁அவள் 447990
▁वहाँ 447976
स्कार 447869
यित 447867
▁नेहा 447784
▁अवधि 447762
ব্য 447714
ꯦꯛꯇ 447668
▁All 447661
ଂଶ 447577
▁আজ 447575
▁war 447504
कात 447374
ren 447340
▁जोब 447325
सले 447229
▁अतः 447080
ানো 447067
▁বিরুদ্ধে 446944
▁കട 446917
▁नीक 446886
വെ 446868
ନ୍ଦ୍ର 446829
▁ଚା 446810
ates 446809
▁ਮਿ 446807
▁ଭଲ 446793
▁ಸೇ 446769
▁সাধারণ 446727
टिंग 446705
▁पुन्हा 446696
ꯇꯥ 446648
▁கல 446592
▁એમ 446590
राइ 446554
ডে 446549
भ्यः 446528
▁தொழில் 446485
▁நகர 446481
▁दिनु 446412
▁यश 446394
ꯥꯏꯒꯤ 446376
ग्न 446342
▁স্ক 446318
▁মুখ 446303
▁منھن 446211
ઓમાં 446191
its 446155
ઓની 446125
▁பள்ள 446108
▁కొన్ని 446067
▁করেছিল 446054
▁वातावरण 446043
▁জন্ম 445969
ெல்ல 445945
▁ହୁଏ 445925
ಿಯು 445855
▁ਭਰ 445783
ल्ला 445728
▁நக 445669
वेल 445614
▁جائے 445586
▁از 445518
▁जायगा 445517
▁does 445449
▁करान 445411
▁पृष्ठ 445398
்களில் 445302
▁પાણી 445281
▁ਦਿਲ 445252
▁සි 445239
▁नजर 445194
▁واپس 445184
3, 445138
த்தது 445048
▁हिस्से 444980
▁कस 444927
▁સામાન્ય 444840
্ল 444741
ದ್ದು 444735
▁छैक 444620
▁हौ 444506
▁ꯃꯗꯨꯗꯤ 444436
▁नाज 444299
▁ਵਿਕਾਸ 444145
▁கிடை 443981
▁ಸೇವ 443943
▁around 443754
▁உறுதி 443641
▁यसलाई 443616
नक 443614
▁डिग्री 443556
▁మంది 443517
▁ڇڏ 443477
▁धार्मिक 443434
▁नका 443427
▁घु 443409
▁নো 443382
▁गाम 443336
্যে 443318
ोस 443315
▁ਸੋ 443306
▁ਪਾਣੀ 443201
ಿತ್ತು 443193
▁राम्रो 443149
▁நெ 443140
▁संवाद 443122
▁ಸ್ಟ 443112
▁പൂ 443096
▁ഓരോ 443047
ೀರ್ 442897
ின்றன 442895
ಧಿ 442806
த்தம் 442674
▁ஆர 442653
▁still 442638
▁ലഭ 442568
▁रक्षा 442532
▁ng 442516
▁குடும்ப 442368
▁أکس 442360
▁साहित्य 442328
اون 442279
▁ମି 442202
▁नांऽ 442160
▁ಇದೆ 442151
▁دوران 442051
स्को 442014
▁told 441895
▁শন্দ 441893
▁കണ്ട 441866
▁கிராம 441783
ാക്കി 441726
▁कं 441698
ताय 441691
୍ରେ 441529
ायै 441479
▁पाकिस्तान 441458
ணை 441419
▁பால 441351
வேன் 441310
ੜੀ 441298
▁जरूरत 441218
ਾਪ 441098
▁हांगा 441098
▁સહ 440987
▁రి 440976
मं 440951
▁निर्धारित 440898
▁लड़ाई 440888
▁خیال 440812
ধিক 440778
र्जी 440756
ஐ 440723
▁इलेक्ट्र 440645
▁বড় 440627
ଞ୍ଚ 440603
पणा 440550
▁येन 440505
ꯍꯥ 440500
▁இந்தியா 440473
▁ᱩᱱᱤᱭᱟᱜ 440356
હિ 440320
▁উত্তর 440288
▁ꯊꯥꯖꯕ 440208
▁उज 440160
▁ly 440004
গণ 439952
ుల 439924
▁ಕಂಡು 439856
யா 439791
▁രണ്ട് 439777
್ರೆ 439740
धिकार 439713
మే 439672
ज़् 439660
ଜ୍ଞାନ 439603
र्फ 439545
সকলক 439491
▁संस्क 439461
▁സംസ്ഥാന 439378
డే 439345
▁45 439259
▁ସ୍ 439239
▁सरा 439233
▁ছবি 439207
▁வல 439148
कुमार 439044
मस 439019
ிகளின் 438988
▁गये 438954
▁سین 438930
்களின் 438857
ind 438622
▁वाज 438576
▁ಭಾಗ 438576
ारो 438570
कू 438527
▁ಆಯ 438526
▁वक्त 438519
▁आबादी 438456
न्त्र 438425
▁हमारी 438400
▁ਕੌ 438315
ever 438272
സ്സ 438204
ಕ್ಸ್ 438167
▁দেয় 438144
ंनी 438114
▁আমাৰ 438110
▁जटिल 438058
▁পারেন 438033
▁ਹੁੰਦੇ 438031
1. 438030
▁ꯍꯣꯡ 438000
▁सीत 437994
▁pyr 437961
▁ꯍꯥꯏꯕꯗꯨ 437956
▁ڇ 437929
ायी 437851
्ति 437800
▁नुकसान 437789
ೊಂದ 437726
ૂત 437707
عی 437699
rate 437680
▁متعلق 437669
▁ꯄꯣꯠ 437628
▁یاد 437586
▁विजय 437491
▁తె 437464
▁વિશે 437404
న్ను 437385
लेर 437371
ீடு 437251
▁मोग 437229
കള്‍ 437169
▁விடு 437100
▁व् 437051
▁జీ 436979
পর 436931
▁அமெரிக்க 436820
िं 436761
ହିଁ 436733
▁അതു 436728
ിലുള്ള 436655
▁کوئی 436637
डक 436597
▁लिर 436597
▁बुझ 436575
▁تحت 436557
ᱩᱠ 436512
ହେ 436477
▁दत्त 436439
ಚ್ 436286
▁ਕਾਰ 436280
▁આપે 436249
bah 436241
▁2, 436223
▁মরু 436154
▁بج 436103
दित 436101
▁चुकी 436081
મ્ 436036
ٕژ 435908
▁ରୁ 435862
▁विभ 435785
पट 435780
▁ꯋꯥꯈ 435772
▁चली 435762
तून 435607
▁75 435545
▁jings 435535
▁യു 435527
▁किसान 435427
▁பிரி 435425
ane 435374
3. 435231
നങ്ങൾ 435205
▁గురించి 435087
▁دنہٕ 435076
▁லட்ச 435021
▁বিক 434919
ಿಸಲಾಗಿದೆ 434914
▁نظام 434897
▁দিল 434886
▁അവരെ 434796
ᱮᱹ 434752
▁Rs 434692
▁संपर्क 434635
▁ꯃꯇꯦꯡ 434632
▁information 434533
ायन 434532
▁परीक्षा 434492
▁भारता 434451
▁भक्त 434373
▁ਕੰ 434337
வார்கள் 434282
ꯂꯨ 434208
▁செய் 434206
▁ಶು 434065
▁वेद 434031
▁परेशान 434002
▁കുട്ട 434000
▁প্রায় 433984
স্য 433960
▁బి 433938
▁ತೆ 433909
▁वर्ण 433811
rad 433750
▁হন্না 433650
ৃতিক 433579
য়োগ 433565
▁ਖੁ 433558
▁ನಡೆಯ 433508
▁दार 433468
ில்ல 433442
▁શરૂ 433418
രേ 433374
▁ਸਮਝ 433211
▁जित 433170
▁आफ्ना 433083
▁ڪار 433022
▁ಬಹಳ 433020
▁लोकप्रिय 432969
ନ୍ତି 432954
ڪر 432900
▁உயிரிழ 432855
▁تمہ 432766
▁जाति 432760
ളെ 432758
▁बनी 432747
ٽن 432724
▁ਇਨ੍ਹਾਂ 432684
▁300 432669
▁உயிர 432655
▁یژھان 432616
▁৩ 432602
▁ᱤᱭ 432572
▁जिला 432559
ப்புகள் 432548
▁His 432491
ੁੱਟ 432481
ꯁꯀꯤ 432448
▁वहां 432421
▁ಸಂತೋಷ 432417
களையும் 432397
▁ବ୍ଯ଼ବହାର 432380
▁भवन्ति 432361
▁பொறு 432346
▁દિવસ 432276
രിയ 432270
െന്നു 432235
ന്നെ 432137
▁അവിടെ 432130
▁انس 432117
वाही 432043
▁கீழ் 431965
▁मंत्रालय 431909
ित्य 431877
▁चिंता 431850
▁യോ 431728
▁হায়র 431577
▁હશે 431575
▁कहना 431565
▁ಸಂಬಂಧ 431478
▁விஷய 431426
tory 431326
▁दशक 431288
ियलु 431276
▁कृपया 431272
ht 431255
▁সত্য 431228
▁रखने 431226
▁അങ്ങനെ 431111
▁ମାନ 431106
▁season 431094
▁താ 430957
▁ଦେଇ 430941
▁शायद 430885
থিল 430866
▁দুর্ 430863
▁होंगे 430860
▁let 430833
ber 430726
शिप 430699
प्रति 430665
ᱟᱹᱭ 430576
▁انسان 430576
දී 430575
▁प्रसार 430560
رت 430493
▁উৎস 430464
▁ଘ 430368
▁प्रतिक्रिया 430333
▁सोशल 430314
▁संस्थान 430289
यता 430215
▁ತಿಳಿದ 430133
ளுக்கு 430100
ানৰ 430068
▁সৃষ্টি 430047
▁കാരണം 430045
হত 430007
▁def 429964
▁তেওঁক 429875
▁मात्रा 429800
▁sw 429772
య్య 429738
▁ಮನ 429718
ઘ 429499
হল্লি 429489
വരെ 429432
▁ਅਨੁਸਾਰ 429251
▁ঝ 429216
ං 429215
बरोबर 429193
▁কৈ 429179
▁మూ 429135
ps 429104
▁वध 429102
ꯋꯥ 429092
▁pass 429042
▁ग्री 429034
ಮಾಡ 429015
యి 428980
▁ਢ 428874
ियस 428850
കാ 428820
షన్ 428745
য়েং 428738
▁ৰাজ 428726
▁स्टेट 428645
ල්ල 428564
ଯାଏ 428559
দন 428367
ମାନଙ୍କର 428353
▁ठूलो 428297
હા 428257
▁सड़क 428172
بن 428151
▁ਸਮਾਜ 428075
ிலே 428024
▁Kum 428015
ঞ্ 427920
▁शांत 427899
▁নিজৰ 427897
جي 427847
माया 427694
▁கொடு 427688
▁due 427673
▁فل 427617
ம்ம 427590
െടു 427530
▁మీకు 427512
▁ବ୍ଯ଼କ୍ତି 427484
▁ವಿಶೇಷ 427424
▁తి 427364
▁अधिकांश 427354
न्तः 427351
▁പദ്ധതി 427297
▁നിങ്ങൾക്ക് 427250
▁मन्थ्रि 427242
▁જેથી 427237
▁شہ 427155
▁काग 427151
ৰণৰ 427122
▁rep 427114
ੱਤ 427029
▁2007 427024
ꯥꯡꯕ 427004
▁આજે 426992
पूर्वक 426921
कान 426916
ved 426907
▁এইটো 426866
▁ᱞᱮ 426744
ମୁ 426736
▁पकड़ 426558
ୋଗ 426518
গৰ 426497
▁भएका 426450
▁ନୁହେଁ 426353
▁शकत 426349
तार 426261
ꯔꯕꯗꯤ 426260
▁ଅଧ 426232
▁मागी 426229
▁రాజ 426205
ాలలో 426196
▁நம் 426174
▁दूध 426108
व् 426070
▁बाहिर 426014
▁ప్రా 425982
▁read 425920
▁विवाह 425820
▁மூன்று 425813
▁వంటి 425758
र्च 425664
▁अभियान 425653
▁હિ 425643
राब 425615
▁দিয়া 425506
▁سائنس 425456
▁यतः 425439
▁ییٚ 425408
വര്‍ 425402
▁মাঙ 425386
ेश 425231
▁ପି 425153
▁संरक्षण 425151
▁ವಾಸ 425125
শ্য 425104
ras 425021
▁ರೂಪ 425012
তম 424969
▁വൈ 424870
्यांत 424864
▁যেমন 424826
▁ꯍꯤ 424796
യാണ 424795
इक 424787
▁रूपमे 424733
انہٕ 424536
ാഗ 424535
▁imp 424449
▁बिजिर 424408
6, 424358
തിന 424270
▁ಸಮಯ 424238
സ്ത 424017
▁ਮਿਲ 423982
▁ପୃ 423967
▁ꯚ 423904
બો 423881
್ರಹ 423871
দার 423841
િવ 423748
▁ആക 423729
▁ବର୍ 423634
▁ڌ 423631
▁ପ୍ରଦାନ 423570
ख्त 423550
▁अपे 423435
জিন 423422
▁മറ്റ 423408
▁ऑस्ट्रेलिया 423339
पत 423336
▁قو 423214
▁रेखा 423199
ets 423126
ਵੇਂ 423119
ড়িয়ে 423116
টার 423114
▁থম 423063
उंड 423027
ꯔꯦ 423016
▁చూడ 422980
ଯୋଗ 422951
▁ಯು 422884
▁ଥିଲେ 422842
▁case 422748
▁അംഗ 422743
ٖ 422639
▁ꯁꯨ 422632
▁संभावना 422619
▁डब्ल्यू 422590
▁پا 422563
ীব 422492
ంచు 422458
▁अन्न 422415
▁News 422353
ंदु 422349
▁ਅਪ 422323
▁حال 422298
▁ملڪ 422289
ಡಿದ 422254
्यांना 422178
భా 422161
▁लगी 422080
▁ಮೀ 422071
ଳା 422064
ગો 422057
ପି 422019
▁ass 421907
▁जंदी 421904
िकेशन 421874
▁முடியாது 421848
▁ব্র 421784
▁روح 421662
ٹری 421551
्ते 421540
▁आपकी 421539
▁రోజు 421535
▁कर्मचारी 421508
્સ 421466
▁रॉ 421452
25 421444
▁ಊ 421414
▁ആയി 421359
▁तलाश 421337
▁উল্লেখ 421304
▁என்றும் 421298
পতি 421201
▁செல 421168
সনগী 421080
ികളുടെ 421020
▁ചിത്ര 421019
▁बनाई 420987
▁ꯃꯔꯨ 420892
ric 420880
▁शक्नोति 420694
▁शक् 420691
जान 420652
টের 420586
▁मनु 420581
ল্লি 420520
ꯕꯅ 420496
▁फैसला 420477
▁लोकांक 420441
▁according 420408
्राम 420387
▁ଡ 420341
▁लामा 420327
▁अन्तर्गत 420247
▁சரி 419979
▁வண 419956
▁वरि 419949
▁ਆਰ 419870
▁கொரோனாவால் 419797
টিক 419791
▁பெரும்ப 419774
▁छोरा 419736
भएको 419688
চল 419635
▁सप 419583
ner 419576
ुः 419569
▁मंड 419509
▁জীব 419455
▁jaka 419388
زر 419375
▁ಅಗತ್ಯ 419320
▁वीडियो 419304
ோதும் 419296
ಇ 419246
▁এখানে 419215
دین 419208
कुल 419124
▁دۄہ 419116
▁मारे 419031
▁ഇവിടെ 418989
ഠ 418962
ਯੋਗ 418894
▁ਆਖ 418865
ಕರು 418846
▁गरेर 418840
ڪا 418837
்ட் 418807
▁পিত 418797
قو 418784
▁साध 418773
তিৰ 418662
▁कार्या 418628
▁উদাহ 418550
য়েক 418492
▁શિ 418470
ेत 418457
मधील 418446
▁चां 418441
▁نه 418428
▁পড়ে 418386
कन 418375
ਰਮ 418270
▁જુઓ 418265
▁ᱦᱚ 418248
्रै 418245
▁সক 418127
▁വര 418074
▁तरीका 418043
ꯣꯠ 418012
▁ಒಳ 417998
▁ಜೀವನ 417964
▁इहो 417941
ोरै 417862
▁মহিলা 417795
െയ് 417769
ାନ୍ 417697
▁مطابق 417669
▁भाजपा 417643
ক্ট 417642
▁ثق 417602
▁ஏன் 417464
ीर 417421
ण्याचा 417281
▁യൂ 417258
▁वान 417237
▁خوشی 417197
▁क्व 417195
▁ஆய 417148
ꯍꯜꯂꯤ 417036
പ്പെടുന്ന 417023
▁दावा 416997
4, 416949
धारणा 416949
सै 416906
▁આવ્યું 416867
▁दियां 416751
▁disc 416678
▁முதல 416672
ᱟᱡ 416668
িত্ 416591
▁ജോ 416580
▁स्वस्य 416532
ினால் 416502
ഷ്യ 416475
▁अग् 416397
मिस 416358
4. 416256
▁તેનો 416218
ତଃ 416170
வாறு 416158
وار 416127
লোই 416103
▁अरे 416088
ble 416029
era 416019
ੁੰਦਰ 416012
दं 415905
மார் 415899
▁তোঙান 415889
▁एन् 415810
▁हान 415784
▁চেষ্টা 415770
ିକା 415754
▁त्यस 415741
▁થયો 415690
صر 415684
ꯨꯟ 415680
▁பாதி 415678
▁met 415656
▁ଏହାର 415622
▁வேண்டிய 415594
▁ꯉ 415516
یاں 415504
▁ব্যব 415447
▁ಉತ್ತಮ 415410
ट्टा 415385
ਾਨੀ 415385
জু 415343
ഫ് 415301
▁হেনগৎ 415297
▁వీ 415217
▁मता 415180
▁স্প 415178
▁स्रोत 415058
▁आउट 414949
ೆಗಳನ್ನು 414946
▁kawei 414937
▁അർ 414893
▁ಮೋ 414798
වි 414696
▁राग 414657
▁ਵਿਗਿਆਨ 414511
▁तपाईंको 414503
ാസ്ത്ര 414441
▁gu 414398
▁فلم 414386
▁ꯑꯆꯧꯕ 414372
जल 414280
▁गर्भ 414248
▁पहुँच 414197
▁আহ 414067
हाय 414011
ಬೇಕ 414001
खन 413953
সমূহ 413924
സാ 413901
ale 413840
▁চলে 413711
▁ಯಾವ 413705
र्तन 413583
▁સરકાર 413577
▁ਮੁੱਖ 413567
ada 413511
नाक 413502
२ 413458
à 413454
▁ᱟ 413396
शः 413352
▁അയ 413333
▁ഗ്ര 413237
▁ગઈ 413228
▁জু 413206
▁ਵੱਲ 413205
ദ്ര 413145
ज़र 413061
యో 413000
▁ಶಿ 412923
▁ᱮᱞ 412904
▁ফে 412861
ಂಡ್ 412856
▁خبر 412836
स्तु 412819
▁وانگر 412815
ाहाम 412804
ാതി 412804
▁पॉल 412747
▁Mar 412707
▁ਕਾ 412703
▁പ്രത്യേക 412642
▁रास्त 412619
মিত 412617
▁اکس 412445
▁नियंत्रण 412350
▁body 412336
▁since 412294
খ্র 412253
▁மேல 412181
▁سگہی 412180
▁सामना 412102
▁ꯅꯨꯃꯤꯠ 412012
یاب 411916
▁प्रत्य 411914
ಲಾಗ 411875
▁রাখ 411840
କ୍ 411830
▁ରାମ 411762
ैक 411715
▁सेंट 411686
▁ফজ 411655
▁সামাজিক 411600
', 411574
▁తీసుకు 411484
দিষ্ট 411460
▁विद्व 411423
▁दौ 411419
▁முக 411417
▁ꯑꯦꯁ 411280
▁અનુ 411232
▁ਹੋਵੇਗਾ 411215
▁ഞങ്ങൾ 411202
ാരി 411195
▁ਮੈ 411182
▁లా 411153
▁অত 411140
మని 410961
▁टेस्ट 410949
ത്വ 410933
ഗ് 410876
▁చి 410826
▁देना 410821
▁ತಪ್ಪ 410813
▁मन्दिर 410789
▁different 410788
ણો 410751
▁കൃ 410729
▁वजन 410644
▁रास 410566
▁शुभ 410555
▁சரிய 410526
সনা 410293
ରରେ 410289
ight 410272
▁जकर 410270
ائش 409989
7, 409933
▁تح 409826
ਮੇ 409805
ક્ટ 409745
সিক 409709
ారి 409704
▁death 409638
▁કર્યા 409631
▁முத 409585
▁డ 409521
▁ਅਸ 409448
ੱਥ 409333
▁பார்த்த 409192
چی 409129
මා 409125
பர் 409123
▁ꯍꯛꯆ 409052
ସ୍ଥ 409048
उँछ 409047
▁मानसिक 408870
▁सम्बन्ध 408870
▁जिसके 408863
▁कार्यालय 408862
▁किमपि 408832
▁सब् 408782
৫ 408751
▁बिर 408695
▁सतह 408676
▁કૃ 408631
▁अंतिम 408620
▁ਪੱ 408614
▁وین 408541
দৰে 408508
▁మాట 408463
▁باقی 408451
▁علاق 408410
▁ऑन 408378
▁फकत 408374
▁ꯁꯥꯏ 408348
ాల్ 408343
▁जू 408091
▁ਪਹੁੰਚ 408024
▁सुबह 408016
ଡ୍ 408009
দিন 407951
সকী 407891
ूय 407887
ula 407877
ಣಿ 407870
ాలకు 407822
14 407795
▁প্রি 407789
ন্তে 407743
▁ತಂದ 407721
ెట్ 407656
த்துடன் 407586
▁वर्सा 407582
▁ನೋಡಿ 407533
▁says 407517
▁human 407481
▁पूर 407443
ੰਗ 407417
▁ꯒꯤ 407380
ണ്‍ 407331
▁रहते 407218
్రి 407101
થા 407094
▁मांस 407093
▁बेह 407077
▁ନିକଟ 407043
ப்பில் 407013
यक 406999
▁हाय 406997
॰ 406903
▁Le 406849
▁ఐ 406802
▁ਦੇਸ਼ 406676
ঢ় 406667
▁each 406660
▁आशा 406573
ٲنی 406484
ুত 406457
▁child 406447
வரை 406404
▁காரணமாக 406379
ീകരിക്ക 406372
নেল 406365
24 406327
वर्ष 406277
▁आयु 406230
▁ਪੰਜਾਬ 406204
اع 406115
▁वयं 406101
ଜ୍ 406034
▁Modi 405978
स्सी 405973
▁کرتا 405858
ખી 405836
▁ख़ास 405785
વાસ 405731
▁डाय 405603
வதற்கு 405475
ᱤᱫ 405412
ces 405294
▁यत्र 405291
ꯂꯦ 405268
▁ᱩ 405256
ూర్ 405231
ିବ 405197
ातून 405188
रित 405174
▁मिश्र 405172
বৰ 405145
ଙ୍କର 405143
▁भग 405115
▁ਆਇਆ 405077
ಲ್ಪಟ್ಟ 405060
▁اک 405025
▁کچھ 405002
▁ಡಿ 404924
শিংগা 404901
▁தொடங்க 404897
ਬੇ 404895
▁ভয় 404895
▁જીવ 404860
▁cases 404856
ᱭ 404840
है 404785
▁ਸੱ 404757
▁علم 404754
জম 404744
▁मेल 404741
ಿಸ್ 404648
▁والے 404602
▁करार 404590
▁करिथ 404578
▁ag 404533
▁സംസാ 404519
▁মতেং 404514
ꯃꯦ 404492
ेड 404461
प्प 404367
జ్ఞ 404350
ꯁꯨꯕ 404340
▁કરતા 404320
▁মানু 404263
▁ꯍꯦꯟꯒꯠ 404168
തായി 404164
▁आक 404144
▁ಹೀಗೆ 404110
▁بھر 404084
ത്സ 404070
▁வடிவ 404055
▁असते 403896
மன்ற 403868
▁ಹೋದ 403612
ort 403455
ंची 403442
▁ල 403385
▁ഉള്ള 403384
▁சம்ப 403282
▁પડ 403255
▁ꯑꯩꯈꯣꯏ 403216
▁ट्रांस 403215
▁व्यक्ती 403198
▁मेळ् 403181
▁des 403141
ᱲᱟ 403104
केट 403070
▁દા 403032
▁दोष 402979
लेले 402861
োক্তা 402857
கோ 402816
▁ആശ 402792
▁بات 402775
▁बिन 402627
▁ਉੱਚ 402568
னே 402545
ിച്ച് 402430
ರಲ್ಲಿ 402351
ര്‍ത്ത 402329
▁ಸಿದ್ಧ 402321
▁चंगा 402314
৭ 402243
ବାଦ 402216
▁qu 402163
त्त्व 402145
यन्ति 402141
▁বছর 402109
▁ਬੈ 402073
▁ꯃꯔꯨꯑꯣꯏ 401992
▁साडे 401951
▁वाड 401939
▁அரசா 401931
▁புரி 401872
▁जंग 401735
▁നിറ 401713
▁স্থা 401681
ণা 401572
ीकरण 401571
▁ಸಂಪ 401537
▁ꯕꯦ 401500
▁آن 401492
▁ਵਿਸ਼ੇਸ਼ 401476
୍ୟା 401447
ජ 401404
▁करीब 401301
▁ਦੇਖ 401279
▁વસ્તુ 401250
▁थीं 401206
ੋਨ 401203
nd 401199
▁छुन 401169
▁পাক 401094
সমূহৰ 401058
माना 400990
▁নত্তে 400988
▁அவர்களின் 400974
اہر 400930
▁चर्च 400773
▁विवरण 400745
▁रस्ते 400712
കര 400646
රා 400571
▁known 400514
▁பேச 400475
▁ਜਿਹ 400443
ష్ట 400379
ꯅꯅ 400288
▁विश्लेषण 400246
▁அடைய 400184
▁ಮುಖ್ಯ 400181
ాన 400166
▁ब्या 400157
ர்ந்து 400094
فر 400076
▁आपने 400015
▁माण 399992
ణం 399922
પ્ત 399902
▁سطح 399879
▁प्रत्यक्ष 399808
▁জাতি 399711
لے 399698
சார 399689
▁पद्ध 399608
▁mother 399577
▁প্রক 399569
ँड 399535
▁done 399505
▁फूल 399468
ꯝꯕ 399432
டுக்க 399420
▁ڪندڙ 399416
▁کین 399394
▁अध्यक्षता 399277
▁માત્ર 399159
▁ସ୍ଥାନ 399023
खैमोन 399012
۽ 399002
▁മക 398975
▁وٲل 398884
▁സ്വാ 398864
▁কেউ 398844
যোগ 398769
▁வாச 398727
▁Kh 398673
▁4. 398672
ୋଧ 398636
▁पहिले 398628
ர்ம 398608
সর 398503
हीत 398480
▁सुबुंफोरा 398465
▁পীর 398348
ঙৈ 398339
කට 398298
ान्स 398240
▁जला 398219
নায় 398164
▁ꯀꯥꯡꯂꯨꯞ 398092
▁उनलाई 398045
▁ملک 398031
▁غلط 397997
▁होत 397976
▁కే 397947
▁পান 397920
ಂತರ 397872
▁मुला 397802
ീസ് 397777
ும்போது 397670
ꯨꯞꯄ 397604
க்கார 397556
▁विदेश 397461
▁लिखा 397447
ಿಗ 397329
▁डिजिटल 397311
▁प्रसिद्ध 397293
▁ହୋଇଥିଲା 397278
▁स्टे 397249
ર્વ 397241
پور 397232
ഭാവ 397232
▁इंजी 397210
देह 397141
ಿಸಬಹುದು 397093
▁ராம 397063
▁संकेत 397038
ڳ 397027
▁தெரிவி 397002
▁ᱜᱮᱞ 396908
▁संस्थ 396888
يل 396852
▁ꯑꯍ 396836
▁खाने 396799
▁तरीके 396755
▁लिन 396670
તાઓ 396665
▁शैली 396613
▁ಅಂತ 396607
▁চার 396551
देन 396479
▁مثال 396455
▁ભગવાન 396392
ents 396375
▁ஒப்ப 396367
▁സൈ 396340
▁school 396333
▁قانون 396330
صل 396304
▁ᱡᱚᱛᱚ 396300
▁ବିଷଯ଼ରେ 396240
న్నా 396238
▁ତାଙ୍କର 396203
പാ 396193
ීම 396173
▁बेटी 396141
▁মহা 396110
த்துக்கு 396054
▁கார 396033
▁તમા 396021
माय 395997
রিয়া 395979
▁keep 395975
▁உத்தர 395953
▁मॉडल 395951
▁കൂട്ട 395948
ਉਂਦੇ 395942
▁चीजें 395940
▁ٿیو 395936
▁jingï 395927
▁অচৌবা 395888
त्ते 395871
▁வச 395845
▁माझा 395798
▁தான் 395714
াকা 395708
▁खत्म 395698
घा 395696
▁1960 395652
▁ಆರೋಗ್ಯ 395605
फल 395603
▁रहैत 395560
ायती 395447
▁ಜೀವ 395388
▁அழக 395383
▁രോഗ 395276
▁ಕೂ 395268
▁اخ 395261
oses 395255
▁யார 395240
▁लाइन 395190
▁খরা 395184
ied 395179
▁அடிப்பட 395175
▁मार्च 395118
▁સમા 395078
▁নিশ্চিত 395050
ार्ट 394984
▁लेखक 394931
නි 394893
▁ಭಾಷ 394806
ர்களுக்கு 394777
▁जिं 394660
ᱚᱨ 394636
शनल 394629
▁জল 394606
▁मर् 394551
▁সন্তান 394435
ਰੋ 394343
ాల్లో 394278
▁होंदे 394183
کت 394178
▁تش 394144
ond 394143
▁தமிழகத்தில் 394032
▁समाचार 394011
ਡੇ 394005
▁সহায় 393997
▁ꯗꯦ 393960
▁శి 393923
° 393831
▁ਵਿਅਕਤੀ 393815
▁സഹ 393786
ടുത്ത 393627
▁ಜನರು 393593
ਦੇਸ਼ 393585
▁خانٛ 393564
▁કારણે 393555
▁لفظ 393527
ਾਸ 393520
▁देखी 393504
▁કેવી 393479
▁वेई 393407
▁પ્રથમ 393364
ন্ত্ৰ 393359
ाजी 393332
ہی 393330
വ്വ 393276
▁नयाँ 393164
▁রো 393162
ವಿಲ್ಲ 393137
▁बाकी 393116
▁ବେ 393058
▁ꯆꯤ 393028
▁অর্ 392989
▁பெரு 392969
▁ꯀꯨ 392956
▁इसकी 392912
▁उद्ध 392904
bo 392874
නු 392848
▁वाप 392844
మో 392799
ంటి 392793
▁ಅವಳ 392744
माल 392647
▁रुप 392646
▁दिखा 392599
ꯌꯦꯡ 392596
▁زٕ 392580
ere 392506
▁ताकत 392485
▁ٿي 392433
ಪ್ರ 392411
▁செய்கிற 392302
▁शैल 392285
ড়ি 392279
් 392251
▁ᱠᱷᱮᱞᱳᱰ 392248
కం 392129
▁நிறை 392104
తీ 392096
▁must 392088
▁ꯑꯐ 392052
▁পাৰি 392035
કરણ 391894
త్య 391871
৮ 391868
▁dec 391816
▁માણસ 391786
ندا 391768
▁दुईत 391707
▁જી 391639
మ్మ 391617
▁४ 391614
ಲೀ 391586
▁કિ 391559
ଭି 391525
▁ಸಹಾಯ 391507
ଜା 391506
७ 391488
ಹಿ 391468
▁کور 391409
বান 391404
▁गोजौ 391387
▁seen 391386
एर 391384
▁शामल 391349
ff 391289
▁গেল 391273
शिष्ट 391272
انے 391249
▁ඇති 391212
▁प्रकट 391185
ೆಯಿಂದ 391142
തല 391104
▁लोड़ 391080
▁ser 391032
▁যেখানে 391031
▁ਲਾ 390947
▁நோய 390809
▁निवड 390747
ாகும் 390737
▁ہندوستان 390662
ജ്ഞ 390659
5. 390593
തുപോലെ 390592
▁எம் 390545
ಟು 390533
ପ୍ 390525
जाब 390515
माने 390478
▁सिस्टम 390436
স্থান 390396
sion 390366
▁show 390326
▁ਦੇਣ 390148
▁மக்கள 390141
▁उड 390120
▁दृष्टिकोण 390073
▁post 390067
টাৰ 390027
▁পথ 389963
▁लक 389830
ंतर 389823
▁सङ् 389807
▁कॉल 389698
৩ 389666
▁ਸਪ 389604
▁മറ്റ് 389566
▁भनेर 389562
ிருப்ப 389559
▁निर्भर 389455
▁யூ 389418
▁ꯄꯤꯈꯤ 389412
▁ප්‍ර 389389
▁தேவை 389348
▁ഇരു 389345
▁بال 389330
କରଣ 389287
▁ଅନୁସ 389246
▁होतो 389219
बैत 389157
▁आराम 389146
▁आपका 389106
az 389096
मार् 388985
▁گرو 388963
▁खरीद 388938
▁தவிர 388928
▁ꯆꯣꯠ 388828
ಕೋ 388802
▁वहीं 388793
▁How 388766
حد 388700
▁থাজ 388667
▁ఎలా 388624
▁காவ 388621
▁ধ্ব 388619
▁मृत 388594
▁लागत 388559
▁அவர்களுக்கு 388542
▁नया 388488
▁নাছিল 388481
▁चांग 388429
▁उद् 388414
▁Je 388397
▁ਆਈ 388384
▁माझे 388383
اڻ 388332
ꯥꯝꯅ 388280
▁যাৰ 388239
गड 388200
শং 388181
▁best 388141
▁ಸೈ 388137
▁जंगल 388053
कै 388049
ෙන 387972
వాడు 387832
യ്ക്ക 387821
................ 387782
क्य 387766
ੱਲ 387685
மையில் 387639
▁অল 387634
ꯨꯄ 387612
500 387394
மோ 387382
dian 387358
▁सज 387352
▁પગ 387318
ેશ 387271
▁जानते 387259
فا 387221
वर्ड 387218
ಿಸಿಕೊಳ್ಳ 387209
▁ᱯᱳᱭᱞᱳ 387180
▁एते 387154
▁మి 387141
ڍ 387133
▁பெற 387125
▁લઈ 387124
ٕک 387120
▁too 387048
iew 386964
▁night 386945
ିଆ 386938
ಿವೆ 386908
ക്കുറിച്ച് 386907
▁ഗോ 386841
▁वितरण 386618
ാനം 386610
ట్ల 386533
row 386519
জ্ 386519
▁সময়ত 386435
▁اپ 386410
▁ବୈ 386349
ജ് 386318
if 386313
▁sk 386205
अलग 386187
▁ನಡೆಸ 386181
▁ਕੈ 386132
গুম্বা 386109
ਥੇ 386097
▁আগে 386026
▁next 386002
▁അടിസ്ഥാന 385987
▁వెళ్ళ 385977
▁कयने 385924
▁प्रयत्न 385890
▁अद्य 385820
నె 385802
३ 385796
மையை 385701
স্তা 385682
బు 385682
▁small 385677
ക്കം 385630
ron 385563
ত্ত‍া 385536
টর 385535
▁ꯑꯥꯔ 385532
▁ಭಾವ 385530
▁ବ୍ଯ଼ା 385488
्रिक 385425
▁अप्र 385210
▁মনো 385192
▁નિય 385181
▁ಮೊ 385181
▁जाएगी 385173
▁pe 385121
▁বের 385090
▁വരെ 385050
▁କେବଳ 384968
ದಲ್ಲ 384966
▁दौड़ 384910
▁होईल 384870
▁आवाज़ 384860
▁ശേഷം 384688
▁पाँच 384671
▁ಮಧ್ಯ 384639
▁ਰਿ 384551
കോ 384494
▁प्रबंधन 384451
اپ 384402
চার 384371
મિ 384355
റോ 384222
▁প্রয়োজন 384216
▁मिशन 384188
▁তিন 384164
▁प्रार 384143
▁बध 384128
▁నుంచి 384121
▁ಕಡಿಮೆ 384100
ಿದ್ದರೆ 384035
▁নৈ 384030
▁যদিও 383985
লাম 383981
ପାରେ 383977
▁Jer 383976
▁ଶି 383917
સર 383884
▁ઘણી 383877
▁छोटे 383742
୍ଯ଼ୁ 383712
्यास 383695
டித்த 383695
▁செல் 383576
ત્રી 383551
▁మంచి 383534
▁হন 383499
▁बंध 383487
ਸ਼ਟ 383474
▁લાવ 383447
▁جمع 383401
▁ਦੂ 383388
▁तस् 383367
▁दिसा 383323
ug 383311
▁ओह 383306
▁system 383172
வரி 383169
▁become 383115
▁خدمت 383097
ர்ச்சி 383093
▁డి 382994
▁कुदर 382988
▁कोर्ट 382980
ద్ 382978
▁अल्प 382925
डेल 382917
ടന 382906
▁ਸਿਰਫ 382878
ஏ 382822
றும் 382812
▁തോ 382783
ylla 382693
▁क्रम 382663
▁ऑनलाइन 382557
▁अग्र 382512
▁ਸੈ 382475
▁தொடர்பு 382439
ಂಟ್ 382417
▁తరువాత 382392
▁five 382382
மையாக 382377
....... 382280
▁پرٛ 382148
੍ਰੇ 382116
اہی 382067
▁કહ 382023
ுள்ள 381977
ड़क 381925
▁मिसाल 381898
ଣ୍ 381834
ୁର 381806
▁खण्ड 381780
▁संभव 381760
▁देखते 381732
বিল 381724
▁ਜਾਂਦੀ 381614
▁கருத்து 381606
ven 381596
pe 381566
▁2006 381565
ring 381564
▁फर् 381471
▁ओळख 381442
ऊन 381398
▁அனு 381387
ભાવ 381331
ട്ടില്ല 381176
▁منظ 381168
सेल 381151
▁لہذا 381148
ভাগ 381133
▁ꯃꯈꯥ 381128
▁મોટા 381106
নত 380999
▁दृ 380988
ਿਸ਼ 380910
▁पुस्त 380888
▁ꯄꯨꯟꯁꯤ 380880
▁वाल 380869
کل 380846
▁ഉൾ 380843
▁पाए 380796
ಿಸಿದೆ 380657
▁അമ്മ 380652
ندی 380617
▁शिकायत 380607
▁ਇਕੱ 380564
দ্রি 380563
▁સૌથી 380483
▁ವಾ 380447
ଯା 380443
▁विश्वविद्यालय 380442
களும் 380414
▁ਜਨ 380321
ताल 380209
ణా 380137
ਤੀਆਂ 380115
▁विधि 380111
ᱴᱟᱨ 380084
▁هن 380047
▁بین 380027
लेन 380002
▁دنیا 379979
▁সেখানে 379966
▁پٔ 379964
▁ଅର୍ଥ 379950
▁ହେବା 379919
▁hang 379859
ெட் 379836
▁ಇನ್ನೂ 379822
▁taken 379787
▁ഭൂ 379769
▁ரூ 379607
▁उससे 379572
वून 379557
▁அட 379498
▁गच्छ 379480
▁ಪಿ 379472
▁മുമ്പ 379469
ത്തോടെ 379326
▁2021 379321
▁गिबि 379287
▁शार 379263
▁دیت 379175
िल्लो 379113
''. 379077
▁सुनी 379017
▁লৈখি 378999
▁कोन 378992
ಲಿನ 378976
▁US 378975
▁gen 378953
ന്നും 378916
లం 378890
කි 378832
सिया 378806
▁ಹೋ 378711
▁अपर 378665
ोग्रा 378657
▁बँ 378615
ಿಗೂ 378603
▁വള 378603
കാശ 378598
▁ଜଳ 378551
પો 378399
ங்கும் 378391
স্তে 378366
▁ধৰি 378360
▁মানুষ 378291
ৰ্ক 378210
স্ত্র 378188
تم 378176
▁கேட்ட 378174
வம் 378170
ਟੇ 378166
▁चम 378155
ᱦᱚᱸ 378148
৯ 378134
ત્વ 378073
▁ಕರೆಯ 378064
▁ਓ 377982
ged 377932
▁पुनर् 377918
▁पृथ 377909
▁ਲਿ 377847
प्रा 377839
षित 377839
▁ಬಲ 377830
▁ਸਿਰ 377810
▁book 377799
▁फाव 377737
स्वी 377659
દય 377608
▁সেয়েহে 377577
▁दोस्त 377568
पास 377527
ਜ਼ਾ 377520
▁వార 377470
▁May 377460
▁ಬಹು 377355
▁ਸਾਰੀਆਂ 377314
▁तप 377202
ுக்கு 377103
ارا 377068
▁चुके 377061
# 377013
▁lot 376870
ced 376864
▁ಕಲ 376815
ಿಸಿದ್ದ 376706
▁প্ৰে 376631
▁आयोग 376618
▁અર્થ 376544
▁ਅੰਦਰ 376539
▁وس 376538
కీ 376530
▁ਈ 376515
▁লোই 376475
यों 376460
सालि 376450
▁ਬ੍ਰ 376436
▁স্থাপন 376313
▁ପର୍ 376278
નુ 376262
▁প্ৰয়োজন 376227
▁બંને 376220
ੱਚ 376189
▁Jud 376123
▁పెద్ద 375984
टना 375922
▁चिकित्सा 375889
▁वायरस 375883
▁ಪ್ರಯತ್ನ 375872
▁गिन 375826
▁देखल 375811
▁एक्ट 375781
2. 375765
ासे 375763
▁पाहिजे 375704
क्षे 375692
▁പറഞ്ഞ 375630
▁ਪਿਆਰ 375616
▁ਸਹਿ 375615
▁ತುಂಬಾ 375556
ꯟꯇ 375496
▁person 375490
ांती 375472
ੋਟ 375338
▁چھےٚ 375288
▁ٹی 375274
▁ꯁꯣꯛ 375252
▁কেৱল 375233
▁लक्ष्य 375133
▁डिजाइन 375020
▁ನನ್ನನ್ನು 375017
▁બાળકો 374920
▁परमाणु 374899
▁अलगि॒ 374872
▁कठोर 374843
গুলো 374817
▁हद 374802
▁درواز 374777
स्तर 374733
ఘ 374681
▁Bar 374678
▁നിന്ന 374651
ෂ 374544
▁नॉ 374460
ਬਲ 374414
▁ꯇꯦ 374392
ুদ্র 374388
▁होकर 374343
▁started 374331
▁తా 374259
▁ਹੁੰਦੀ 374253
ించే 374216
▁मेज 374156
ऐ 374114
▁গুৰুত্ব 373985
बादि 373972
ਅਨ 373944
▁चाह्न्नां 373896
য়াল 373860
▁তেন্তে 373845
పీ 373806
▁परिप 373736
ᱩᱢᱟᱹᱱ 373700
▁बजाय 373697
▁পদ 373614
▁ٿین 373528
▁ਜਿ 373522
▁ماڻھن 373486
▁گھ 373483
▁लं 373480
▁शिर 373445
▁तोड़ 373377
▁That 373373
ත්ත 373367
ٛہہ 373360
▁कधी 373355
▁मॅ 373178
lli 373166
▁عورت 373117
▁مطال 373061
▁गयी 373030
▁गुना 373016
26 372991
▁tih 372985
ॉस 372982
ାରୀ 372927
ਹੇ 372893
ाइल 372885
▁માણ 372779
▁వరకు 372757
സ്പ 372752
▁സന്തോഷ 372644
▁दिमाग 372592
ರಾಗ 372575
▁देई 372531
▁2: 372510
▁श्रेणी 372465
▁उम्मीद 372427
▁ਆਪਣਾ 372425
▁இருக்கிறது 372421
▁وز 372411
नियर 372392
ണ് 372390
▁বিকাশ 372341
▁टू 372304
શ્ 372201
ੁੱਲ 372200
▁रहेको 372109
res 372092
▁party 372041
ాలని 372040
▁இல்ல 372015
▁টাকা 372005
▁ನಿಜ 371983
▁ꯃꯄꯨꯡ 371964
▁पहिलो 371926
▁ob 371917
▁ਮਹ 371916
▁হিং 371909
▁সাধাৰণ 371898
▁کسی 371850
▁ଡି 371850
कर् 371787
ओल 371774
▁গিয়ে 371739
करी 371710
▁ನಂಬ 371691
▁अवि 371673
چر 371664
టా 371649
▁பொருள 371594
▁ڪیل 371590
mi 371558
▁লৈরি 371497
▁موسی 371495
गाह 371476
ક્ષા 371419
▁तथापि 371400
बंदी 371342
lang 371314
▁ut 371247
න්නේ 371220
શું 371206
▁बाज 371158
▁సూ 371147
पैकी 371123
್ರೀ 371066
▁ଆରମ୍ଭ 371054
മാക 370995
▁पत्रकार 370928
ంపు 370922
▁پار 370902
थुम 370889
▁మనం 370871
▁இரண்ட 370733
ऑ 370728
▁Do 370725
▁national 370690
दय 370686
▁ওইদুনা 370642
ெல்லாம் 370541
▁ଦେଶ 370458
लील 370456
▁ꯃꯇꯧ 370404
तल 370380
এন 370354
९ 370339
▁ಸೋ 370299
▁शादी 370253
▁રાજ્ય 370177
▁ꯔꯥꯏ 370140
▁শৈ 370113
घात 370104
▁પુત્ર 370077
▁ଗୋଟିଏ 370070
▁ग्लो 370052
▁आये 370030
▁وٺی 369916
▁ഇതി 369872
▁खरी 369863
କାରୀ 369835
▁कविता 369802
मानि 369749
▁ਸੇ 369737
▁અમ 369718
▁ವಿವ 369632
परि 369519
▁ᱛ 369512
ꯍꯥꯛ 369504
ർശ 369489
▁कदम 369421
▁ਲੰ 369401
▁ꯄꯥꯛ 369384
▁ক্রি 369249
ꯀꯥ 369228
▁बेल 369194
स्या 369153
▁विमान 369144
▁കഴിഞ്ഞ 369109
▁development 369083
▁ವ್ಯವಸ್ಥ 369081
▁बौ 369066
▁વિચાર 369027
▁আপনাকে 368974
اتن 368951
கத்தில் 368906
వారు 368861
ೀತ 368832
ेंक 368798
शु 368793
खायै 368720
टेन 368714
▁ᱡᱟᱦᱟᱱ 368704
ಟ್ಟಿ 368697
▁एकत्र 368692
▁um 368681
▁આનંદ 368636
▁દૂર 368619
▁கடி 368618
▁ಮತ್ತೆ 368614
▁اڪ 368613
▁बाह्र 368607
▁समर्थ 368588
▁സീ 368577
ங்களும் 368520
ಕ್ತ 368497
▁وٲ 368398
भाषा 368394
লিয়া 368351
୍ରହ 368338
▁ചെ 368276
▁భూమి 368229
જ્ઞ 368209
▁मुताबिक 368135
▁ڪند 368042
▁त्यामुळे 368021
▁दुश् 368011
▁হোৎন 367993
▁گن 367989
▁बोसोर 367964
८ 367947
▁चालू 367947
X 367935
▁মশীং 367899
▁बापस 367895
▁ਖ਼ 367891
▁दीर्घ 367888
▁কোৱা 367851
▁(200 367846
▁बें 367830
ंना 367822
▁নিয় 367678
मास 367612
▁sent 367541
▁আপোনা 367535
▁ചോദ 367535
ᱛᱤ 367528
thei 367452
▁مضبوط 367404
मूल 367403
aiñ 367399
ಮೆ 367373
▁डॉक्टर 367356
ைக் 367297
समा 367249
▁మార్ 367199
▁ಪಟ್ಟ 367187
६ 367158
ாக் 367155
▁யா 367131
▁आयोजित 367071
ষ্য 367062
▁इत्यनेन 367013
▁వై 367009
म्भ 367001
लर 366971
▁विशीं 366918
▁ᱦᱟᱹ 366892
▁ꯌꯥꯕ 366888
▁ꯑꯣꯏꯗꯨꯅ 366820
▁साइट 366818
▁full 366796
▁यूरोप 366791
▁કાર 366788
▁कहानी 366717
▁बोर्ड 366704
▁எப்படி 366697
स्स 366687
ब्रा 366684
▁ଜା 366662
বন 366661
ئین 366633
▁ਛੱਡ 366603
▁pa 366516
वाला 366457
▁થયા 366448
▁પસંદ 366371
▁power 366348
ान्य 366191
▁આપવામાં 366172
▁जाईल 366122
▁ꯇꯥꯔ 366112
▁inter 366111
▁फिसा 366085
▁शीर्ष 366080
▁तोंड 366048
▁im 366025
▁काट 366002
▁ठे 365973
▁संशोधन 365963
ear 365957
▁नेपाल 365913
▁उचित 365809
▁ꯑꯩꯅ 365748
ꯂꯥ 365716
▁ᱵᱤᱰᱟᱹᱣ 365632
ानु 365575
▁શકાય 365565
▁De 365387
ିତ୍ର 365326
नों 365315
▁व्यक्तिगत 365270
▁ꯎꯠ 365252
▁ਵਿਰੁੱਧ 365138
▁तशेंच 365106
▁آهن 365085
ᱢᱤ 365040
▁गासन 365012
ವರಿಗೆ 365007
▁वास 364919
कार्य 364905
க்கை 364896
▁पश्चिम 364887
▁ꯂꯨ 364852
ely 364848
▁ञ्याणे 364842
▁कोणी 364812
▁साज 364806
▁இங்கே 364498
ute 364485
வார் 364447
ंका 364435
▁மின் 364416
▁సై 364402
শিষ্ট 364401
राज्य 364353
ढी 364338
्राज 364324
▁বো 364279
िएका 364189
ਭਾ 364153
पाचो 364129
els 364080
ᱮᱹᱞ 364040
ন্দে 363993
▁দায় 363950
ধান 363841
ಕಿ 363840
▁அதற்கு 363750
▁آواز 363736
▁खेतर 363730
▁दाह 363705
ாகி 363694
▁मुश्किल 363656
▁think 363609
▁ರಚ 363583
চাৰ 363537
▁चित्रपट 363520
▁স্থান 363507
▁നെ 363495
▁वर्षा 363481
▁तमे 363435
ᱟᱲ 363380
▁until 363357
▁صدی 363269
த்தைக் 363243
த்திலும் 363234
▁गावस 363213
▁ఏమి 363193
ੜਾ 363181
▁যেতিয়া 363168
▁ശ്രദ്ധ 363159
▁கடை 363151
▁वही 363092
▁ਨੀ 362938
ලි 362917
▁जिससे 362917
ിന്റെ 362868
rat 362866
▁स्टेशन 362846
▁حڪ 362800
▁தேசிய 362784
▁মূল্য 362700
್ಯೂ 362696
ਅਰ 362673
▁একই 362668
▁పని 362657
ચી 362631
▁યા 362623
ᱩᱴ 362604
সক 362588
ash 362565
▁ಪ್ರಕಾರ 362562
▁फर्क 362500
▁میری 362480
▁انہوں 362469
▁নী 362461
▁ਅਰ 362435
22 362430
▁ಮನೆಯ 362426
▁भेज 362376
मता 362250
शाला 362148
పె 362108
▁तत्र 361962
లోని 361950
▁മാറ്റ 361940
▁ముందు 361914
▁சிக்க 361841
▁مجھے 361811
▁য়াবা 361763
्हा 361762
▁never 361745
்தி 361726
▁ਸ਼ਬਦ 361697
ವಿದೆ 361663
लेख 361570
▁પિતા 361527
▁संभाव 361472
▁छह 361460
ഴു 361443
ನೆಯನ್ನು 361433
▁যিনি 361419
▁अदा 361385
খ্য 361380
▁വയ 361348
au 361346
▁මම 361231
ବୀ 361200
पर् 361152
যোগ্য 361144
▁ਤਰ 361100
▁प्ल 361098
▁हैज़ 361077
بت 361068
▁ধরনের 361014
▁প্রকাশ 361005
▁खंड 360991
▁फ्रे 360979
ുകൊണ്ട് 360972
▁অৰ্থ 360930
विध 360921
ువు 360909
ଥାଏ 360887
▁ਬਚ 360884
सङ् 360864
▁नये 360847
▁ৰাজ্য 360802
▁ਵਲੋਂ 360761
રની 360684
▁shong 360630
▁एल् 360586
ವರೆಗೆ 360509
ମର 360469
▁ਯੂ 360438
▁ସାଧାରଣ 360428
▁(2 360402
▁خوبصورت 360400
▁वित्त 360380
▁far 360327
▁কেন্দ্ৰ 360326
▁را 360324
▁بنیاد 360316
▁दूसरी 360260
▁got 360174
സ്റ്റ് 360099
▁प्रकाशित 360079
▁घ्या 360042
▁ஆர் 360038
در 360026
▁ಮಾರ್ಗ 359992
ᱼᱵ 359944
▁टै 359933
▁ವಿದ್ಯಾರ್ಥ 359925
▁began 359868
▁भन्ने 359861
▁பதிவு 359830
▁गत 359810
▁செயல 359780
▁पशु 359764
ities 359723
▁सूत्र 359675
ose 359674
৬ 359600
▁କେ 359600
ିତା 359553
क़ी 359536
দায় 359481
ുടെ 359412
▁माम 359395
श्या 359321
லும் 359221
ಾರಿಯ 359188
পক 359182
ବୁ 359170
▁ಸೌ 359141
▁நேரம் 359135
ప్ప 359121
▁मं 359054
ರುತ್ತ 359022
▁पाइ 359005
▁ଜୀବନ 358987
▁ପର୍ଯ୍ଯ଼ନ୍ତ 358956
▁जालो 358889
▁ડિ 358856
▁mi 358842
▁अहम 358763
▁శా 358697
েরে 358685
▁थाहा 358660
▁ث 358657
▁थाखो 358656
फाइ 358641
▁six 358615
▁అంత 358609
මි 358583
কল 358494
▁માતા 358456
এস 358454
▁शहरी 358444
rang 358369
▁ভাৰত 358216
▁ਪਿਤਾ 358215
▁गौर 358195
नर 358194
ॉप 358130
▁हमने 358120
▁ಗಮನ 358008
▁छोट 357990
▁190 357970
▁ಅವಳು 357907
▁ওইরিবা 357905
▁ଶକ୍ତି 357863
lem 357852
▁எங்கள் 357725
▁ಪ್ರಮಾಣ 357665
▁त्याचा 357661
▁ଏହାକୁ 357608
▁ಕೆಳ 357585
▁ડે 357558
▁गर्छन् 357550
▁ক্ষেত্রে 357515
▁જેમાં 357511
ুরা 357477
▁ਕਿਉਂ 357435
▁ꯂꯦꯞ 357376
▁भीड़ 357364
▁मर्द 357364
▁हासल 357352
▁त्यांचे 357206
▁won 357179
ꯟꯒꯤ 357164
िप् 357131
▁ஸ்ட 357075
▁५ 357034
▁உரு 357027
▁അന 357019
ক্নবা 357001
▁अत 356858
▁চাল 356850
▁ᱟᱱᱟᱜ 356840
ଦେଶ 356795
▁syn 356787
▁बिहार 356778
▁یون 356775
சம் 356733
▁طرفہٕ 356672
ক্সি 356648
'', 356622
▁ಹೃದಯ 356620
▁ഫോ 356595
▁ભાઈ 356501
▁डियण 356480
32 356404
▁شٲمل 356396
घर 356348
ੱਟ 356346
▁سکتا 356300
▁ಮಾತ 356278
▁group 356270
▁फोटो 356264
▁नोंद 356253
ꯜꯒꯤ 356220
▁تعلق 356203
स्त्र 356176
▁மூல 356174
ꯒꯨꯝꯕ 356160
▁बेटा 356158
લિક 356152
▁खराब 356151
্বা 356058
ക്ട 356054
ٲی 355952
▁several 355930
▁ꯑꯍꯨꯝ 355928
▁रिक 355926
ڪس 355827
र्य 355824
బడిన 355737
हाँ 355701
▁زان 355687
ट्ठा 355663
കാര 355662
▁गट 355590
ᱫᱟ 355544
खिजाया 355538
▁സഹോദ 355537
ार्क 355516
ಖ್ಯ 355503
▁හා 355447
සි 355442
த்தக 355432
rit 355415
वली 355400
చ్చు 355378
मेल 355328
▁ಸಭ 355297
▁الگ 355290
ढ़ी 355276
▁انج 355265
ियार 355248
ned 355246
▁చేసి 355190
▁वॉ 355131
ठार 355126
ହୁ 355116
ജന 355050
▁సహ 354979
દાન 354974
▁Congress 354973
ꯔꯣ 354936
ளிய 354927
▁தொடர்ந்து 354882
बर्ट 354869
▁உயர்வு 354857
▁ताज 354780
▁آیا 354712
▁सप्ताह 354656
ತಾ 354608
લમાં 354606
▁ಸಾಧ 354533
க்கில் 354503
டியே 354448
▁৫ 354429
ਲਾਈ 354422
ത്തോ 354388
▁চিন্তা 354367
▁ସୃଷ୍ଟି 354337
▁ꯑꯗꯨꯒ 354300
▁ञ्याणें 354272
▁सावन 354269
▁କରୁଥିବା 354232
▁କ୍ଷ 354134
ோட 354102
▁সামনে 354094
▁शब् 354093
▁হেল 354090
▁চী 354008
ುತ್ತಿರುವ 353999
▁तकनीक 353982
افت 353937
बक्ख 353904
▁பதில 353901
ற்றி 353863
▁त्याची 353863
ible 353857
ാന്ത 353840
▁साब 353831
▁క్ర 353806
▁हालां 353791
▁ਬਲ 353789
▁कर्म 353788
ரிச 353758
র্ম 353711
ᱟᱹᱲ 353704
ंटी 353703
▁अगले 353697
ଖରେ 353695
વાના 353692
्यः 353688
మం 353675
ద్దు 353665
▁آد 353611
ওই 353603
ਢ 353550
थां 353505
न्दा 353420
▁Now 353400
q 353387
ଟା 353360
پن 353304
▁சேர்ந்த 353251
▁ڀارت 353249
▁टेक् 353216
▁ரா 353214
▁मगर 353206
▁टेली 353188
▁পুন্সি 353126
▁cor 353084
▁आमतौर 352972
▁संर 352943
▁हत्या 352875
▁खाता 352867
▁মধ্য 352835
▁घेऊन 352784
▁പിന്നെ 352745
▁ടെ 352720
ਖੀ 352719
கர் 352706
▁વ્યા 352702
ிரி 352692
நிலை 352687
زا 352618
ਟਾਂ 352575
ৰ্শ 352483
ংক 352456
মূলক 352453
▁इत्यादी 352446
▁शास्त 352398
वनी 352357
▁ھو 352340
ᱨᱮᱱ 352332
सरे 352312
ത്തിലും 352309
રૂ 352298
▁myn 352293
▁কিছুমান 352283
▁डु 352233
▁കള 352223
▁આપ્યો 352151
▁देत 352130
हरु 352105
ांवर 352078
િકા 352053
दात 352032
रूप 351998
▁ಸೂಚ 351978
ியன் 351969
▁ਗਰ 351965
కాల 351962
ꯥꯎꯕ 351952
▁কোটি 351916
▁खाद्य 351899
▁अनुकूल 351878
▁মণিপুর 351861
ୀୟ 351806
▁pr 351802
▁தன 351797
ᱛᱟ 351788
▁ആണ് 351736
▁तौरा 351710
▁उत्स 351706
sc 351674
ினும் 351645
▁ஆத 351587
योजन 351579
ারণ 351541
her 351518
▁பாதுகா 351516
▁अने 351508
▁ವ್ಯ 351463
ಾರೆ 351427
बंध 351376
▁नोग 351358
ee 351353
▁ਦੌਰਾਨ 351275
வோ 351257
▁बजा 351241
▁केलेल्या 351235
▁ꯔꯨ 351224
▁thu 351199
▁Am 351197
▁സൂ 351095
▁150 351069
ட்டின் 351020
▁জানা 351004
▁ਨਿਯ 350997
মো 350947
ಂಥ 350930
▁വന്നു 350917
തിൽ 350876
▁ਅੱਗੇ 350684
▁ದಿ 350668
▁ꯑꯩꯈꯣꯏꯒꯤ 350648
ിച്ചത് 350610
णो 350557
▁کرنا 350548
▁बारेमा 350524
▁શકો 350493
▁നിരവധി 350491
▁কৰ্ 350478
▁شا 350353
▁जॉन 350240
▁لاءِ 350206
▁പറയ 350205
କ୍ତି 350182
min 350180
क्का 350121
িলা 350096
ঙ্গল 350051
▁ادار 350030
రణ 350007
ന്തി 349994
नायथि 349921
▁भवान् 349901
ای 349879
▁அவருக்கு 349858
▁37 349852
किन 349847
ಿಸುವುದು 349819
▁யார் 349798
िति 349763
సే 349713
▁ਯੋਜਨਾ 349683
▁vi 349680
▁ଏପରି 349657
▁ખુ 349654
▁आवास 349647
▁वस्तू 349581
▁చేశారు 349579
ालय 349556
rab 349547
▁পড় 349536
▁مب 349524
▁ನಮಗೆ 349493
కున్న 349466
▁നിന്നും 349451
ন্টি 349450
▁बढी 349392
ূপে 349377
ੱਦ 349356
▁இவ 349332
▁sing 349297
न्छन् 349266
ക്കെ 349251
▁வருகிறது 349186
▁ਜਾਂਦੇ 349176
▁రూ 349139
▁જવાબ 349090
lic 349057
▁പ്രാ 348979
ට් 348945
▁बगैर 348913
▁ꯑꯦꯝ 348900
▁आखः 348898
▁பல்வேறு 348877
ಗಿನ 348873
▁ਡਿ 348801
▁important 348793
ন্যা 348765
▁संक्रमण 348741
▁ৰে 348705
▁करण्या 348694
▁কৰিলে 348596
▁ವಿರುದ್ಧ 348580
▁2005 348532
▁United 348490
सीसी 348344
थाम 348288
▁முடிவு 348279
ᱮᱱᱴ 348268
▁देखभाल 348255
▁सम्पूर्ण 348228
van 348194
▁ترٛ 348164
कारण 348135
▁اي 348092
▁ಇರ 347998
▁Ad 347989
▁منت 347989
▁பத 347823
▁माग 347807
▁जातात 347784
▁પૃ 347770
▁गर्दै 347740
▁धु 347719
of 347684
▁ਯੋਗ 347650
▁अस्तित्व 347642
▁ꯄꯦ 347608
▁ষ্ট 347607
▁શી 347606
େକ 347591
▁خوف 347519
نو 347452
जीव 347422
ख्रुइ 347409
ide 347402
▁ꯏꯃ 347368
▁एकः 347327
ँग 347307
டம் 347299
▁ഹൃദ 347270
ಲ್ಲಾ 347265
▁ᱨᱮᱭ 347216
ியது 347163
ries 347144
तू 347140
জনা 347135
▁few 347108
ছা 347087
▁केस 347040
▁চেয়ে 347028
▁అనేక 347006
శ్ర 347001
▁Hyn 346992
▁ꯊꯨꯅ 346964
र्भ 346902
▁ਰਹਿੰ 346895
▁bo 346849
ular 346847
▁जून 346802
देखि 346707
▁অহানবা 346648
୍ଟ 346641
থোকপা 346621
ிகளுக்கு 346550
▁play 346526
▁निवेश 346505
▁ju 346496
▁பாதிக்கப்பட்ட 346466
▁उद्घाटन 346403
▁ফল 346328
ase 346295
ಕೊಂಡ 346274
ન્દ્ર 346258
▁ઠ 346253
ନର 346172
▁સુંદર 346065
▁बिस 345970
▁ಗುಣ 345947
▁फुट 345901
▁ᱟᱡᱟᱜ 345852
▁ꯍꯛ 345844
▁प्रौद्योगिकी 345841
▁অনৌবা 345795
তকৈ 345764
▁அமைச்ச 345741
বিদ 345729
21 345716
മായിരുന്നു 345688
বাস 345676
ांड 345610
પે 345568
▁শহর 345482
▁बुनियादी 345475
ഗ്ര 345375
ফল 345356
▁ରଖି 345320
ર્ડ 345309
▁জো 345275
▁നൂ 345274
્રી 345220
▁राष्ट्रिय 345170
▁live 345168
▁നമ്മുടെ 345152
▁પોતા 345127
▁தொகு 345125
▁सत 345090
िट् 345087
▁भवित 345052
▁මා 345010
▁World 344992
▁சிறந்த 344972
▁0. 344949
▁கண்டுபி 344934
▁খোঙ 344899
ious 344849
▁સંબંધ 344836
▁औरत 344808
▁earth 344781
▁அங்கு 344712
▁Sa 344690
▁ಹೆಸ 344668
▁तब्दील 344547
▁సినిమా 344510
▁શો 344437
▁எனது 344420
▁তি 344408
▁મળી 344396
ಿಯಾಗ 344378
▁వాటిని 344352
▁બદ 344324
▁মৃত্যু 344306
▁बिजली 344304
▁ਬੱਚੇ 344296
▁33 344290
▁लोकांना 344279
▁उन् 344259
హా 344248
▁ಸಾಧ್ಯ 344217
न्तरं 344208
▁श्रेष्ठ 344171
ਹਾਰ 344149
▁हाबा 344143
▁tip 344108
টির 344103
ନରେ 344102
▁تجرب 344097
▁चै 344059
▁However 344041
▁ఎందుకంటే 343988
ನ್ನೆ 343843
▁ശ്രമ 343804
▁ten 343784
▁স্ম 343744
प्रयोग 343691
▁ஜி 343675
▁साथी 343556
්‍ර 343490
Y 343469
▁ಮೂರು 343443
▁آئی 343428
▁sngew 343417
ड़ो 343403
क्ल 343395
তৰ 343390
ରକୁ 343373
▁ಆರಂಭ 343370
▁మేము 343348
▁ଯେଉଁମାନେ 343308
செய 343257
ುತ್ತಾ 343239
▁مک 343234
गरी 343175
▁ৱারী 343132
ail 343073
▁ஒன்று 342920
▁ಶಾ 342909
▁چی 342869
स्ति 342859
▁৪ 342824
▁money 342752
▁ਪੰ 342745
▁வழங்கு 342745
नाई 342718
ಳೆಯ 342690
্ৰি 342662
▁company 342578
େତ 342531
▁ಏಕೆಂದರೆ 342514
माव 342478
रस 342447
▁पुरा 342438
▁सांगितले 342408
▁பெறு 342377
▁அனுமதி 342364
▁bha 342363
▁زانٛ 342360
▁ev 342342
▁mynta 342341
▁ಒಂದ 342329
▁தொழில 342309
▁مقصد 342300
পাল 342280
▁گئے 342276
थान 342161
▁ಪ್ರಮುಖ 342089
▁ഡോ 342050
یاز 342020
▁ꯆꯥꯎ 342012
▁together 341988
▁चिन्त 341979
پس 341957
ायक 341910
▁विशेषता 341909
ded 341886
▁অনী 341828
▁উন্ন 341792
ाः 341789
তিয়া 341720
ଳୀ 341689
▁சர் 341604
சே 341602
▁ಸಹೋದ 341587
த்தல் 341523
-3 341491
▁em 341438
ण्यास 341429
▁जनवरी 341428
▁might 341419
ುತ್ತಿದೆ 341415
শ্ব 341405
ালী 341326
▁પહોંચ 341302
▁sur 341281
ত্যা 341271
ಾಂತ 341265
▁രീതി 341245
▁ಹೋಗಿ 341171
▁کنہ 341164
▁వర్ 341143
▁યોજના 341111
ప్పటికీ 341042
▁બન 341015
शान 341007
▁प्रशिक्ष 341007
స్తే 340962
▁ಇಂದು 340933
▁रहता 340917
▁ਮੰਨ 340902
ures 340893
▁വീണ്ടും 340862
▁विवाद 340818
▁रन 340817
ৰ্ণ 340804
▁क्रिकेट 340801
▁pay 340718
ब्द 340708
یکل 340679
▁பற்றிய 340674
وا 340647
ુલ 340646
▁ইয়াত 340616
▁ಗಣ 340558
ੋਕ 340489
▁જેવા 340483
▁संशो 340454
ᱯᱤ 340452
ासा 340335
తారు 340294
ਵੇਗਾ 340250
ந்தி 340202
▁शारीरिक 340086
ನ್ಸ್ 340061
▁ନିଯ଼ 340040
▁इतना 339971
ology 339911
▁ধরে 339911
াৰে 339892
▁அல 339888
▁काउ 339720
▁ಮನೆ 339720
▁দাঁ 339624
▁خصوص 339561
ٕنۍ 339544
▁மைய 339544
গুলিতে 339535
▁घात 339510
▁ꯍꯟꯊ 339496
▁মালে 339387
▁දෙ 339307
ಲಾಗಿದೆ 339267
▁তু 339258
▁فائ 339187
▁गुजरात 339152
ں 339104
ভর 339099
▁ইন্দিয়া 339095
▁نتی 339084
তিত 339072
ভাই 339068
▁সঠিক 339018
्छ 339009
णः 338971
▁mind 338948
▁शिकार 338937
എസ് 338832
ೀರಾ 338814
▁हाई 338749
▁सेल 338735
लब 338721
▁சுக 338696
▁जेल 338695
▁words 338682
▁ক্ৰ 338614
▁ship 338605
▁પ્રતિ 338551
▁ആഗ്രഹ 338507
▁संदेश 338489
▁mon 338408
নু 338308
ణి 338253
▁ꯑꯣꯏꯈꯤ 338232
ریم 338213
न्दु 338204
▁रहत 338177
▁woman 338148
▁ଉତ୍ତର 338101
বিত 338048
▁અપ 338007
▁इव 337992
▁प्राय 337981
▁हिंदी 337960
▁पैठ 337931
▁لے 337795
ೋಟ 337784
▁సేవ 337773
ज़ु 337769
▁ଅଭି 337739
▁पहिल 337700
ास्ट 337627
▁১ 337594
ê 337558
▁ଯିଏ 337545
च्चा 337522
▁وڏی 337476
▁বিপ 337467
▁پسند 337397
usal 337387
ᱟᱞ 337376
dic 337374
▁ಕ್ಷೇತ್ರ 337366
▁National 337318
▁ڏنی 337276
▁അറി 337239
▁کینٛہہ 337236
▁ꯂꯣ 337172
ised 337169
▁राशि 337086
1) 337036
▁ਪੁ 337008
િયન 336967
லுக்கு 336932
▁ਮਹਿ 336854
▁తర 336786
මු 336752
ुति 336749
▁वुछ 336741
▁கன 336711
র্ব 336685
▁ꯑꯅꯧꯕ 336676
▁ঢ 336664
▁area 336658
6. 336623
রকপা 336560
ꯔꯒꯤ 336460
▁gave 336457
▁ஆகும் 336455
स्सै 336445
යන් 336327
▁നിങ്ങള്‍ 336320
▁district 336288
▁परा 336229
▁ٻار 336226
▁نیو 336136
కులు 336113
▁ત્રણ 336086
▁दुसऱ्या 336080
ছৰ 336044
▁भनि 336019
▁निरा 336014
▁हज़ार 335991
▁કરવાની 335969
▁মাজত 335889
ages 335845
ᱭᱦ 335832
▁അല്ല 335818
▁ꯇꯥꯏ 335808
▁विल 335698
▁> 335658
ित्व 335652
▁କ୍ର 335643
▁उत्पा 335635
▁चंद्र 335594
गढ़ 335567
ர்களு 335538
ગા 335537
▁ਰਸ 335522
दरी 335513
പ്പെടു 335502
mat 335440
ന്ത്ര 335425
লম 335420
சிக்க 335406
ਜੇ 335398
▁टाक 335375
ುವುದ 335305
থমে 335285
يا 335229
▁बेरे 335220
▁فی 335210
▁குழ 335183
രീ 335167
▁अधिनियम 335054
▁कदें 335032
▁গেছে 335003
▁top 334996
▁students 334986
द्रो 334980
नल 334942
▁జా 334932
90 334922
ঝ 334918
▁વિવિધ 334910
▁गोल 334878
బడి 334854
ꯍꯟꯅꯕ 334852
▁ష 334835
▁तकली 334825
ଗୁଡ଼ିକୁ 334815
టర్ 334786
▁എം 334783
▁লাগ 334680
ٹو 334659
▁ಮಾತು 334567
▁കേരള 334536
फिक 334503
ꯔꯦꯜ 334470
▁food 334448
▁तः 334388
يڪ 334374
▁1: 334373
▁വല 334319
হী 334307
▁ماڻھو 334296
▁मैच 334272
▁পাল 334226
ালয় 334223
▁ਹੋਵੇ 334212
▁വഴി 334192
▁قابل 334146
ताना 334122
▁1000 334103
▁ভিত্তি 333991
हत 333956
શ્ચ 333916
▁मौसम 333862
▁ছোট 333822
▁হাই 333793
▁सुपर 333784
उँ 333767
ାରା 333754
▁മേഖല 333726
র্ণ 333651
સિ 333613
▁ରହି 333575
▁reg 333552
▁सारा 333464
ꯅꯩ 333412
▁1980 333364
▁निम्न 333356
সার 333319
▁گھٽ 333278
ಮಿಯ 333242
▁என்ப 333222
▁ಬೇಕ 333131
▁support 333057
ਡ਼ੀ 333028
▁ظ 333025
rop 333013
▁गुप्त 332996
ಾನು 332902
▁ꯃꯥꯌꯣꯛꯇ 332872
ைப் 332846
दानी 332799
രിൽ 332792
▁दिहुन 332780
ૃતિ 332775
less 332771
▁రో 332742
▁PM 332734
▁ꯔꯥꯖ 332732
ल्क 332618
▁अधि 332613
قت 332578
▁ଆଜି 332559
ପରି 332453
▁शान्ति 332424
▁बातचीत 332322
்ச்சி 332315
▁वित्तीय 332251
▁उत्प 332240
▁ಯಾ 332236
amp 332160
ੇਰ 332065
▁शराब 332018
so 332008
್ವ 331990
ନିକ 331941
▁ବର୍ତ୍ତମାନ 331938
ड्स 331905
हारी 331856
▁भौ 331814
ിലൂടെ 331803
▁wor 331737
نٛز 331708
▁मिथि 331702
▁ಸರ್ಕಾರ 331660
▁find 331654
▁brought 331627
▁കഴിയ 331575
▁early 331560
tom 331534
▁care 331521
ধা 331512
दाद 331426
्राइ 331420
්‍ය 331329
.- 331317
▁ज़े 331284
▁मैदान 331186
▁ହୃଦ 331182
▁फुड 331172
har 331163
▁प्रस्तुत 331143
▁நிறு 331127
▁उतार 331073
▁નોંધ 331054
▁ᱛᱟᱞ 331040
▁शांति 331030
बारी 330889
४ 330832
▁போட்ட 330756
▁लाई 330701
▁زند 330699
▁000 330677
▁ଆମେ 330634
▁అన్న 330602
▁பாதிப்பு 330597
ꯍꯧ 330496
ized 330475
जिकल 330445
साइ 330262
▁കണ്ണ 330239
पार 330212
▁By 330210
▁যাবে 330123
یلہٕ 330112
යෙන් 330096
▁ൽ 330088
▁रिप 330037
▁വരു 329996
▁വെള്ള 329980
इएको 329954
ಿನಿಂದ 329880
▁जॉ 329867
্রু 329853
▁வரலா 329818
चय 329785
▁দুই 329736
द्धि 329699
▁पर्यावरण 329638
▁వచ్చ 329626
ined 329612
▁લી 329519
മാർ 329501
ଓ 329468
▁ऐतिहासिक 329467
▁ਪਰਿਵਾਰ 329416
ण्ट 329397
▁কেনে 329285
▁நீர் 329174
▁फ्ल 329050
▁विदेशी 329024
ायत 329011
ଂସ 329002
▁निर्मित 328990
▁ଲକ୍ଷ 328986
▁নিজের 328958
▁মীৎ 328934
ிலான 328932
ியோ 328927
তৃ 328916
▁दिसता 328828
▁پروگرام 328789
▁سبب 328729
▁دری 328706
▁ڊی 328704
ক্ল 328643
▁ಮೈ 328622
▁સેવા 328566
▁ଆସ 328480
▁শান্ন 328475
▁ᱥᱚᱨᱠᱟᱨ 328464
क़े 328441
மீ 328435
മല്ല 328425
एक 328399
▁भय 328382
▁gra 328363
ട്ടുണ്ട് 328358
ப்பின 328346
िनी 328281
ٹے 328264
▁bym 328199
▁inst 328197
▁President 328195
▁सोमोन्दो 328163
লোক 328156
▁میرے 328071
▁అవ 328057
▁వద్ద 328053
्यावर 328047
▁ہاتھ 327968
▁kren 327883
▁ठा 327835
▁कव 327688
▁সালে 327673
8, 327663
േഷൻ 327658
▁ಇದ 327630
▁ꯂꯩꯉꯥꯛ 327616
▁योज 327582
هي 327572
ভৱ 327550
িলো 327550
ப்பின் 327543
▁ꯐꯥ 327504
▁ଯୋଗ 327469
▁सुल 327437
వులు 327436
▁हिंसा 327427
▁अपेक्षा 327378
▁गुड 327365
▁ರೀತಿಯ 327365
▁जत 327348
ौलनि 327278
हीन 327275
ওক 327248
▁शेयर 327216
▁कीते 327127
▁छुं 327125
ாமி 327094
▁क्षेत्रों 327078
▁ഒന്ന 327073
ર્મ 327032
▁അവൾ 326995
▁rangbah 326988
▁স্কুল 326941
▁কোর্ 326938
ಾಲಯ 326897
▁देखे 326889
ஷ்ட 326876
लांत 326754
▁चन्द्र 326736
ುನ 326733
▁அங்க 326705
ಎಸ್ 326691
পনা 326686
▁چار 326614
▁വ്യക്തി 326599
త్తి 326574
ંત્ર 326518
▁മാന 326515
ாரா 326484
▁आदर्श 326447
▁कंप्यूटर 326429
▁തുടങ്ങിയ 326423
▁পোৎ 326405
▁president 326400
▁ലി 326364
▁పద 326317
ಧ್ಯ 326295
ासिनो 326274
ண்ட் 326238
क्सी 326182
▁पॅ 326143
কাল 326099
ui 326097
▁याथ 326035
রিক 325992
▁हिमा 325882
▁लागल 325876
हल 325856
▁தொற்று 325849
ভুক্ত 325831
va 325775
▁પોતાની 325773
वहार 325728
▁വന്ന 325722
▁उम्र 325709
▁सफल 325635
▁நாள் 325609
pt 325555
்களுக்கு 325531
mer 325519
ಮೇ 325514
▁ఇక్కడ 325438
▁ڪیا 325392
▁हाम 325318
▁सिल 325294
▁Sam 325290
▁भन्दा 325265
▁संपूर्ण 325227
ෑ 325152
ult 325151
▁ଜଣ 325137
▁அரசியல் 325079
સના 325070
▁කො 325056
▁स्पर् 325023
रत 325000
லே 324938
▁பக 324920
ಿಸಬೇಕು 324908
ফোর্ 324904
▁श्रृंखला 324805
▁પૂર્વ 324798
▁६ 324780
ൊപ്പം 324724
▁ti 324723
▁मंजूरी 324643
▁ലോ 324641
▁পারি 324614
▁વિશ્વ 324586
▁ہوتا 324525
ஸ்ட் 324524
▁ಉತ್ತರ 324489
▁প্ৰথম 324476
ಿಯಿಂದ 324451
ਗਤ 324447
কৃত 324428
▁ಪರಿಣಾಮ 324396
꯱ 324372
▁முழுவதும் 324362
▁দৃষ্টি 324344
▁स्वी 324319
▁বলি 324314
▁উত্ত 324306
7. 324291
ையே 324269
▁കയ 324236
▁बीमार 324183
▁died 324124
ത്തും 324112
▁Singh 324102
▁व्यव 324039
▁بناونہٕ 323980
તુ 323975
▁ঘটনা 323974
▁hu 323960
▁सीट 323927
▁ma 323870
ಂತ್ 323869
▁وئی 323846
▁গ্রহণ 323823
ama 323763
دم 323756
രമ 323651
ots 323591
കളെ 323578
ngk 323546
▁గో 323524
த்தும் 323468
ત્ય 323464
▁pynlong 323461
▁00 323441
രമായ 323439
ప్పు 323437
▁সম্পর্কে 323412
▁ਮਾਨ 323405
ികള്‍ 323396
നിൽ 323352
▁हट 323327
▁زی 323308
▁மரு 323293
ඳ 323291
▁اد 323286
ೇನೆ 323266
ચ્છ 323228
▁નીચે 323175
ல்ப 323147
ಾಚ 323143
हरी 323129
ಬಾರದು 323104
പ്പോള്‍ 323085
ڪو 323075
▁ನಗರ 323027
▁वरी 322993
▁ବହୁତ 322988
బడ 322936
ঘাত 322925
▁اج 322924
▁قب 322913
▁इलाज 322905
▁मैने 322897
هن 322820
ূল 322807
▁नैतिक 322761
৪ 322721
▁times 322718
▁तपाईँ 322707
ହିତ 322700
ളിച്ച 322694
ade 322666
▁ଯାଇ 322648
▁ଭାରତ 322599
▁মাল 322571
ward 322563
▁सिं 322506
ഇ 322446
ிற்க 322427
ats 322350
▁व्यवसाय 322308
▁` 322303
▁മറ 322279
ेंशन 322193
▁ꯀꯤ 322192
ಾರದ 322103
▁कदा 322094
▁ꯑꯁꯤꯒꯨꯝꯕ 322092
पचारिक 322064
▁तिला 322034
ani 321999
्याः 321999
▁സ്ത്രീ 321885
▁रेल 321860
ଳ୍ପ 321857
హం 321830
्यांक 321797
▁दिखाई 321789
देशे 321703
ಸರ್ 321661
▁જઈ 321636
▁ज़ु 321635
▁എങ്ങനെ 321578
▁बोला 321570
سل 321569
▁अगस्त 321564
▁Mr 321489
▁ಅಸ 321487
ଖା 321473
▁ਵਧ 321427
ਾਰੇ 321398
ass 321394
▁महत्त्वपूर्ण 321279
ബന്ധ 321263
▁দশ 321195
▁ગો 321188
▁வாய 321152
▁मोठ्या 321033
▁সংস্ক 321013
सिस 321012
గ్ర 320986
▁वीर 320963
ஃப் 320917
▁ᱪᱤᱛᱟᱹᱨ 320900
▁എന്താണ് 320879
▁ತೋ 320813
णू 320800
▁नियमित 320607
▁কাছ 320597
▁কারণে 320562
▁ସମାନ 320482
▁Go 320474
ன்மை 320442
▁कुस 320400
ନେ 320393
▁ಭಯ 320309
45 320308
▁ಚಿ 320267
▁પહે 320256
▁தேதி 320228
▁گہ 320227
▁Ne 320186
ங்கம் 320179
▁કેન્દ્ર 320106
മായും 319918
▁ٿیڻ 319852
▁ꯃꯃ 319804
න්ද 319797
ਧਾ 319754
kum 319725
▁fire 319724
▁आश्चर्य 319715
ꯈꯠ 319688
ସ୍ଥା 319682
ome 319644
বেশ 319637
রগা 319610
▁शक्त 319599
▁وضاحت 319505
▁બંધ 319485
▁स्वतंत्र 319467
हं 319461
▁இடைய 319452
ചി 319445
▁इसगी 319428
ශ 319421
▁ಒದಗ 319417
तीत 319384
▁ਜਾਣਕਾਰੀ 319381
▁month 319368
▁انہیں 319368
▁পৰী 319347
ship 319323
੍ਰਿ 319305
▁இப்ப 319272
ಿಸಿಕೊಂಡ 319226
രുത് 319209
ੋਗ 319190
▁அளி 319182
▁Pro 319177
▁పై 319156
▁order 319154
▁இன 319111
▁හි 319091
ᱭᱟᱜ 319084
▁गोष्टी 318973
▁प्रकृति 318937
ಲೆಯ 318920
▁লগে 318901
▁শিক্ষ 318856
साह 318835
▁जाया 318748
▁ব্যবস্থা 318738
नुक 318688
டியாக 318624
▁ngut 318553
▁محفوظ 318488
raw 318477
લના 318476
▁நிகழ 318301
▁ଜାଣି 318291
ఠ 318253
▁தலைவர் 318229
ಂಡು 318201
▁इत् 318189
ꯄꯒꯤ 318188
▁توهان 318177
▁જુ 318165
▁ꯂꯣꯏ 318132
▁ਕਿਰ 318130
ર્ટ 318050
▁ꯊꯧꯔꯥꯡ 318036
▁विद्यालय 318022
आय 318012
▁অদুগা 318009
்த்து 317965
पोर्ट 317917
▁वानान 317912
▁কম্প 317906
▁ਪੈਦਾ 317902
ন্তু 317901
▁sm 317857
▁minister 317854
দাং 317853
જ્ઞાન 317850
▁मुलां 317798
▁ناو 317794
▁எது 317744
হল্ 317648
ଲର 317648
দ্ধি 317638
▁साबित 317619
▁વિકાસ 317590
ङ्क 317581
▁বজ 317575
▁ಅವುಗಳನ್ನು 317529
▁পদ্ধতি 317516
▁விளை 317515
ായിരുന്ന 317501
▁ᱠᱤ 317464
▁ਜ਼ਿਆਦਾ 317425
▁হার 317402
▁ਵਿਖੇ 317365
वीर 317354
পূ 317307
▁सफलता 317297
▁अरब 317283
▁పే 317245
চ্ছি 317209
ंत्र 317197
▁॥ 317187
ರಿಸಿ 317153
मुत 317143
▁app 317114
मीन 317027
▁സ്പ 316997
സിന്റെ 316977
ளம் 316943
▁सक्रिय 316940
▁ਪ੍ਰਭਾਵ 316939
▁భా 316914
తుల 316912
▁ಇಷ್ಟ 316912
▁हरि 316879
ુક 316832
▁કંઈ 316766
▁विष 316731
প্পা 316699
تۍ 316672
▁University 316664
▁ഇവ 316638
ئي 316616
▁لوگوں 316599
▁ಬಂದು 316553
ියා 316545
▁मरी 316544
পূৰ্ণ 316524
▁ಕಳುಹ 316501
▁पठा 316479
▁पार्ट 316439
▁tang 316429
▁عب 316402
▁गैस 316304
পান 316249
▁കണ്ടു 316224
▁ફે 316201
ರವ 316128
▁য়ুনি 316119
চ্ছা 316099
▁ਸਰੀਰ 316078
▁නම් 316030
ख् 315946
▁வார 315929
জনে 315909
▁જીવન 315899
▁हृ 315753
ਚਾ 315737
कः 315659
ered 315641
▁Sy 315632
वाई 315619
▁जर्मन 315558
▁वां 315548
▁एमओ 315497
▁चू 315434
▁पठ 315423
▁નાખ 315417
ல்களை 315404
▁વિના 315402
▁കുടുംബ 315353
ورس 315316
▁ବାହ 315202
எஸ் 315118
▁ਵਿਚਾਰ 314992
▁ನೇ 314989
▁पाई 314935
స్థ 314892
ুৎ 314888
▁art 314872
▁ನಿರ್ 314832
▁സ്ഥല 314818
ᱤᱛ 314812
▁دار 314711
▁नात 314703
▁සං 314693
▁धन्यवाद 314646
▁কেন্দ্র 314574
▁મુખ્ય 314538
▁बावजूद 314537
▁तपास 314528
▁ஆண்டில் 314497
▁pri 314442
▁സിനിമ 314362
▁दक्ष 314349
▁بہتر 314304
थिखौ 314261
ांच 314255
▁ध्व 314249
▁आयल 314245
लाब 314241
जाव 314158
▁ক্ষেত্ৰত 314062
▁ꯔꯦꯁ 313996
▁அணு 313981
▁యూ 313954
▁కొత్త 313951
▁അധിക 313889
দো 313864
▁कुठे 313827
▁ꯑꯦꯛ 313808
▁शाम 313791
க்கூடிய 313776
▁ಗ್ರ 313728
▁નિર્ 313698
ष्ण 313662
വാദ 313653
▁पछि 313634
ues 313623
▁ક્યાં 313622
▁ପ୍ରଥମ 313582
▁ꯄꯥꯡ 313544
ताप 313507
તન 313456
مال 313425
ମିକ 313409
വന 313400
ꯟꯖ 313384
ave 313333
▁ವಿವಿಧ 313268
▁ਜਾਨ 313264
ವ್ 313256
▁Co 313199
mp 313195
ৱেশ 313160
▁বাহি 313157
bit 313155
▁అనే 313145
▁ہین 313140
▁ऋष 313126
▁सर्वात 313122
▁শেল 313111
▁বী 313072
મમાં 313019
▁पटक 313005
▁ਬੱਚਿਆਂ 312945
▁اهو 312849
ശ് 312809
▁وول 312766
▁ସୀ 312724
▁ගැන 312702
▁দো 312699
▁अधिकारियों 312675
న్య 312665
▁लघु 312571
▁शेष 312571
▁போரா 312550
வர்களின் 312434
ാള 312344
ಗಾರ 312341
▁ನೋಡಿದ 312336
ꯊꯨꯝ 312264
ায়ী 312222
▁રામ 312209
ect 312202
▁ହାତ 312121
gh 312104
কেট 312098
▁മുൻ 312094
▁నన్ను 312093
ਠੇ 312067
▁சொந்த 312063
ੰਤਰ 312049
ঐ 312023
▁One 311978
▁वेबसाइट 311970
▁ਵਿਚਕਾਰ 311910
▁अक 311899
▁ਸਾਨੂੰ 311891
▁ಹಾಗೆ 311860
▁സ്ഥാപ 311847
ked 311833
કની 311778
ಾಲಿ 311751
ുദ്ധ 311736
▁सैन 311698
▁புக 311693
ম্ভ 311645
ධ 311492
ौरा 311477
▁வீர 311471
▁చిన్న 311437
▁सरल 311406
क्या 311401
▁થશે 311386
▁David 311370
▁اضاف 311335
চ্ছে 311328
▁വിശ 311281
▁विरा 311197
▁धीरे 311166
▁जिल्ला 311140
ගෙන 311138
▁ప్రపంచ 311128
र्श 311088
ਤਮ 311053
▁special 311044
▁તા 311023
▁നടത്ത 311003
ন্দুনা 310922
▁नवी 310922
▁செய்யப்பட்ட 310910
ਉਣਾ 310867
▁मस 310785
▁ಬೆಳ 310748
સુ 310740
ଷ୍ଠ 310684
shi 310683
▁संसद 310669
▁बुध 310667
ণৰ 310645
ோடு 310644
▁நிற 310587
रेशन 310552
▁व्यावसायिक 310541
▁वाई 310518
୍ତ 310514
ــ 310486
▁himself 310452
زم 310421
ಿಯಾಗಿ 310410
▁আক 310390
▁भारती 310336
▁செய்தி 310325
▁प्रगति 310280
▁प्रतिक 310269
▁2003 310254
ರುಗ 310164
▁halor 310082
ಂತಿ 310056
रोध 310038
گری 310036
▁प्या 310025
येन 310000
▁पूर्वी 309976
ീസ 309905
▁یقینی 309888
▁जाली 309887
▁ਮੇਰੀ 309873
▁cl 309841
,' 309812
परिक 309791
दातर 309769
ുവി 309748
▁नंतर 309745
▁অন্ত 309735
್ರೇ 309685
▁ଦୁର୍ 309682
▁सम्प 309681
28 309673
▁ഭക്ഷ 309654
▁ಆತನ 309548
ਮਾਰ 309547
▁अरु 309492
साई 309478
▁खाला 309464
जिन 309463
गाव 309436
▁बरस 309425
▁ഹോ 309386
ꯜꯂꯤ 309348
विष्ट 309338
ध् 309285
▁நடிக 309278
▁അല 309237
▁ಯಾರು 309219
स्ते 309189
டக 309166
▁তেওঁলোক 309149
▁माझी 309142
आं 309111
▁wife 309060
▁مرکزی 309047
টোৱে 309006
▁ٻین 309000
றைய 308991
▁face 308968
& 308907
▁ಕ್ರಮ 308883
▁സൃഷ്ട 308853
▁লৈর 308851
▁அமைச்சர் 308800
वरण 308777
▁உடல் 308768
▁अच्छे 308737
ার্থ 308736
▁ਸ਼ਿ 308714
தியில் 308710
▁तट 308705
खु 308674
▁फाय 308650
▁ଭୂ 308616
▁कंट 308573
க்கோ 308481
ാനുള്ള 308312
▁പറ 308286
ڀ 308209
ਿਆਨ 308181
▁संग्रह 308173
▁किती 308148
▁புது 308147
िसी 308132
27 308118
▁ᱜᱚ 308016
మె 308009
पल 307996
ୂର୍ 307992
▁san 307976
▁বলা 307936
ହନ୍ତି 307922
▁ꯔꯥꯟ 307920
▁நடைபெ 307819
▁নীং 307817
▁पैघ 307815
▁হচ্ছে 307710
ଣ୍ଣ 307709
▁मंद 307701
▁واقع 307700
▁கெ 307698
▁जातो 307617
फान 307614
▁حڪومت 307595
▁മുതൽ 307539
▁using 307531
▁along 307481
▁மக்க 307472
ාර 307454
▁ei 307432
▁মানুষের 307391
ണു 307364
▁ପୂର୍ବ 307346
▁ಲಕ್ಷ 307343
▁ಅಭಿವೃದ್ಧಿ 307322
யில் 307317
▁ਅਨ 307317
▁process 307309
▁വാക്ക 307224
▁संकल्प 307201
ଞ୍ଜ 307175
হৌ 307169
▁ᱮᱱ 307148
ਜ਼ਾਂ 307136
▁ਭੂ 307095
▁ತೆಗೆದುಕೊಂಡ 307086
▁ચા 307085
यबाक 307080
्हान 307039
मंड 307037
▁एशिया 307033
▁देहा 307006
▁ચે 307006
शनी 307001
▁ꯑꯋ 306964
▁always 306946
ଯ଼ନ 306916
க்களை 306912
▁டெ 306877
ina 306842
▁संब 306835
▁plan 306814
▁एता 306805
क्चर 306748
▁संबो 306740
स्याः 306721
ങ്ങൾക്ക് 306697
▁ಅದೇ 306687
▁تصور 306661
▁لئے 306639
▁ग्रह 306632
ابل 306616
ngew 306601
▁എന 306598
्यूट 306596
▁week 306589
▁young 306588
ঞ্জা 306576
▁जुड़े 306574
▁ମଧ୍ୟ 306572
ಹಾಕ 306543
▁આગળ 306535
టం 306522
ખ્યા 306504
▁haduh 306481
▁ಮೊದಲು 306463
▁ஜெ 306460
कारा 306444
ਦਿਆਂ 306429
औ 306427
▁ಯೋಜನೆ 306418
▁ಕುಟುಂಬ 306399
भूमि 306388
▁ꯊꯪꯕ 306380
ന്ധ 306357
ెన్ 306352
ଳେ 306333
▁हाँ 306331
▁ঋ 306315
▁छड़ा 306264
▁ചി 306258
▁সীমা 306256
▁ಅತ್ಯಂತ 306244
▁কর্ম 306214
চৰ 306207
తిని 306157
▁કરવું 306088
▁बयान 306068
मती 306011
ame 306002
बाल 305958
لان 305878
ಕರಿಸ 305853
▁डॉलर 305842
ंडे 305840
▁strong 305806
▁सल 305806
▁سچ 305803
▁தேர்வு 305802
▁સંખ્યા 305789
▁सचिव 305780
ڈر 305761
▁एएम 305726
▁haba 305690
▁ජ 305666
▁ꯌꯨꯅꯤ 305652
▁റോ 305616
▁ਪ੍ਰਤੀ 305600
▁ਅੱ 305594
ರಳ 305552
▁प्रेरित 305538
▁उपस्थित 305453
▁site 305450
पूर 305396
دڙ 305393
ರಿದ 305393
▁माही 305341
▁வைத்து 305331
▁లక్ష 305318
തില 305223
▁مست 305218
▁பகுத 305213
▁మాత్రమే 305211
▁সমা 305197
▁കഴിയും 305113
▁near 305070
නවා 305014
▁നൽകി 304942
निश 304915
▁लाया 304908
▁यथ 304866
▁ହୁ 304827
രായ 304797
ars 304793
▁ਸੱਚ 304787
▁வக 304786
නේ 304782
▁مطلب 304782
मारी 304761
▁within 304708
▁sto 304691
▁هو 304685
▁වෙ 304631
▁ମିଶ 304614
▁খুদোং 304613
▁सकिन्छ 304557
ন্দু 304531
lar 304510
▁தண்ண 304504
ందుకు 304479
▁مٿ 304464
▁sawi 304430
▁जाला 304412
▁ਸਮੂਹ 304400
▁मती 304399
ریف 304375
ਸਲ 304354
▁बताए 304343
▁March 304267
▁నిర్ 304251
ଦେ 304175
▁சொல் 304157
▁റി 304157
கே 304095
▁कन 304093
▁धारा 304077
्यांची 304054
▁ക്ഷ 304053
▁ꯀꯌ 304048
سن 304040
ods 304020
▁ಹೇಳಿದ 303973
ଲୁ 303958
▁5. 303955
9, 303949
▁ସମଯ଼ 303944
ടുത്തു 303901
▁नव्ह 303896
▁கொடுத்த 303855
ൃത 303794
માણ 303723
ंगल 303719
▁మొ 303698
▁शौ 303695
ns 303688
▁ਕਿਵੇਂ 303673
pp 303652
no 303649
▁துறை 303644
pur 303545
▁जोखिम 303523
শোধ 303485
▁ചെയ്യും 303405
ura 303329
ꯜꯗ 303328
ளா 303314
▁ವ್ಯಾ 303256
▁rev 303242
दास 303215
▁game 303208
▁தகவ 303151
▁ٽی 303112
▁फर 303093
▁रहि 303089
▁सॉति 303048
▁ꯑꯣꯐ 303036
33 303009
ഞ 303008
▁करै 302996
▁തമ്മ 302951
ास्त 302942
▁ꯅꯨꯡꯊꯤꯜꯒꯤ 302924
ളുടെ 302882
നേ 302869
▁ਸਕਦੀ 302799
ईल 302796
ത്തിലുള്ള 302793
▁brother 302782
▁ক্লা 302775
▁'' 302724
▁जं 302716
ris 302668
▁act 302655
▁ଆଣି 302631
्ती 302606
ক্তর 302577
▁ماحول 302570
▁പൊതു 302510
▁முன்பு 302483
▁పేరు 302477
ंगी 302438
வ்வ 302411
hold 302393
▁ಕನ್ನಡ 302379
▁شخص 302318
ারী 302310
▁தகவல் 302308
▁சிறு 302272
▁اثر 302144
ection 302141
▁कठिन 302126
▁अंध 302099
ංග 302060
ାର୍ଥ 301984
▁भरोसा 301984
ڈن 301970
ર્થ 301938
▁சேவை 301920
▁તેનું 301874
▁free 301845
▁স্থ 301838
▁अच 301820
ꯀꯣ 301808
▁ਸੌ 301780
तंत्र 301776
▁real 301770
▁प्य 301747
▁ಸಮಯದಲ್ಲಿ 301742
▁উদ্দেশ 301741
ತಿಯನ್ನು 301727
ല്ലാം 301686
▁என்றால் 301650
▁പറയുന്നു 301609
▁ಕೊಡ 301605
▁सप्त 301603
തം 301582
ਹਰ 301551
▁अर्को 301477
ঠি 301395
ਰੀਆਂ 301381
ക്സ് 301346
▁শক্তিশালী 301340
▁ಮೋದಿ 301316
ਵਾਸ 301227
ꯥꯏꯅ 301208
▁دہ 301205
▁घटक 301199
ition 301179
▁sorkar 301178
▁ਜਿੱਥੇ 301163
▁ನಡೆದ 301115
▁न्यून 301076
పడి 301075
▁પ્રેમ 301074
୍ମ 301047
ꯑꯣꯠ 301032
▁কাৰণ 301022
▁सायख 300979
▁अयो 300848
▁इस् 300815
पती 300707
▁ਰੱਖਿਆ 300676
▁होऊ 300673
▁گروپ 300648
▁विशाल 300610
سا 300595
▁வெள்ள 300570
▁حکم 300562
▁പിട 300550
▁देशों 300527
க்கப்பட்டு 300515
▁قائم 300511
ving 300476
▁ਲਗਾ 300421
દે 300385
▁ఇతర 300382
▁सीख 300340
▁ਮੰਗ 300311
▁ফলত 300226
▁সমস্যা 300226
▁सकारात्मक 300218
देर 300200
▁অঞ্চল 300195
▁سوچ 300178
▁लगदा 300178
▁କେନ୍ଦ୍ର 300168
ख्र 300157
▁බව 300152
▁साय 300117
▁ಕೇ 300060
▁பாதுகாப்பு 300035
ମୋ 300028
▁ચો 300021
dom 299952
▁शर्मा 299945
ائر 299905
▁पिक 299890
ାତା 299889
▁आपली 299868
সূ 299866
▁media 299832
▁தொலை 299784
नगरे 299774
▁जवळ 299760
ष्क 299755
لع 299742
▁business 299671
▁beautiful 299634
ર્ક 299560
▁fac 299549
▁സത്യ 299524
▁സാധാരണ 299519
▁pop 299497
▁મદદ 299427
▁बुद्ध 299417
▁फॉर्म 299405
▁ਭਰਾ 299378
▁റെ 299334
▁അവര്‍ 299294
کٹ 299285
▁ସମା 299274
▁राजस्थान 299232
லம் 299225
ಕರ್ 299198
दीक 299133
బి 299130
▁फसल 299002
▁ಪ್ 298913
യിലും 298871
▁त्यांची 298829
▁बाकि 298827
land 298801
▁गेली 298746
▁ശരി 298723
▁परिव 298715
iz 298702
্যৰ 298675
▁प्राप् 298673
▁తిరిగి 298667
▁ରାଜ୍ଯ଼ 298660
ക്കുകയും 298649
▁दस्तावे 298622
75 298619
▁held 298558
ஷன் 298521
▁ಕಾರ್ 298466
▁आपले 298444
ચા 298426
▁वुचने 298412
سر 298357
ক্লিবা 298314
▁run 298267
▁મારો 298261
▁দিতে 298250
▁দল 298196
▁مف 298165
िताः 298122
র্থ 298121
▁ہا 298097
▁দাই 298067
ഹി 298061
▁கவி 298061
▁ଜନ 298046
ବାକୁ 298007
▁महर 297970
▁चीनी 297956
റ്റാ 297943
▁ହେଲେ 297938
▁एप 297873
▁ਸੇਵਾ 297870
▁million 297867
▁State 297807
▁अदालत 297793
J 297700
▁सम्बन्धित 297687
▁রু 297687
▁वालों 297605
ിലേ 297594
జు 297576
ଗ୍ 297564
വിൽ 297479
ಶಿ 297438
ूर्ण 297405
▁இதன் 297393
▁तसेच 297383
▁भवेत् 297382
ಂಸ 297378
पूर्वी 297319
▁ਅਜਿਹਾ 297278
▁former 297266
▁Se 297257
కరణ 297249
০০ 297224
▁सत्ता 297218
▁লুপা 297175
▁राजनीति 297154
▁ਜੁ 297132
काई 297131
▁महसूस 297110
ꯄꯥ 296976
▁পালন 296959
▁అదే 296949
▁ನೈ 296875
ंचे 296863
▁seven 296828
▁અવ 296816
পের 296808
▁ᱠᱚᱫᱚ 296784
▁દરમિયાન 296776
टीन 296687
▁சத 296672
ांसाठी 296603
స్తాయి 296601
▁इस्तिमाल 296489
டித்து 296488
▁മനോ 296398
▁ಹಾಗ 296397
▁ہس 296363
▁نس 296353
ative 296326
ंटर 296326
▁John 296322
ಯೂ 296306
▁rec 296287
▁थाम 296283
▁কাং 296253
റെ 296242
▁अचानक 296207
వ్ 296196
▁ଜୀ 296187
کشن 296160
తలు 296158
▁কোবিদ 296131
▁250 296091
▁ہار 296088
▁ਤਿੰਨ 296028
▁ਹਾਲਾਂਕਿ 296022
▁often 295998
▁સ્વા 295916
▁हिस् 295841
▁ବୁ 295829
▁प्रोजेक्ट 295804
▁जिसका 295771
▁અભ્યાસ 295678
टीक 295670
टाइ 295636
ਡ਼ਾ 295625
കളിൽ 295613
▁ਤਕ 295595
▁පු 295509
▁asked 295479
▁जागाय 295479
we 295429
▁ins 295418
▁ਮਰ 295377
க்கொள்ள 295346
▁ప్రేమ 295343
▁મૃત્યુ 295340
దీ 295333
▁सोन 295311
ିବାକୁ 295308
ਪੁਰ 295242
ਿਊ 295242
ਪਰ 295210
▁پھر 295144
▁ho 295100
▁जेह्ड़ी 295054
▁ات 295047
▁December 295027
▁ବିକାଶ 295009
▁members 294985
▁خود 294978
▁ਅਨੁ 294955
लेला 294954
୍ରୋ 294947
ସର 294930
Ï 294921
▁ਤਾ 294912
▁இறு 294891
▁ever 294836
िने 294675
▁দ্বিতীয় 294632
47 294612
▁শিক্ষা 294581
▁ഇൻ 294492
▁age 294482
▁कमल 294470
“ 294466
▁अमेरिक 294455
ଜନ 294378
टले 294349
ੇਂ 294343
इन् 294290
▁गेदे 294272
▁உட்ப 294264
▁ख़िलाफ़ 294218
ವನ್ನೂ 294196
لیم 294124
▁प्रभावी 294114
▁वोन 294107
ഴി 294101
▁light 294084
▁వచ్చి 294071
ꯂꯔ 294024
late 293997
ன்பு 293996
▁දු 293952
▁वेळार 293936
▁అక్కడ 293931
▁प्रवाह 293909
కర్ 293883
▁ಕತ್ತ 293869
▁गोष्ट 293834
▁સ્ત્રી 293796
▁ಪ್ರತಿಯ 293788
▁ആരോഗ്യ 293740
▁حمل 293725
▁min 293677
▁سائ 293674
▁ভালো 293658
▁போலீ 293640
▁केवलं 293634
ಬೇಡಿ 293620
ek 293584
▁असो 293575
भन्दा 293552
▁મૂક 293512
▁नौकरी 293469
▁असतात 293423
▁ഉറ 293382
ഹിത 293367
▁ಆಫ್ 293339
▁ਸ਼ਕਤੀ 293338
▁ఉపయోగించ 293331
▁fall 293326
▁കൊണ്ടുവ 293307
▁दवा 293298
▁ve 293254
ੱਖ 293195
▁આં 293172
▁ತುಂಬ 293169
▁ಸಾಮಾಜಿಕ 293098
मति 292960
▁ꯅꯨꯡ 292960
▁امی 292889
▁બની 292854
்தான் 292720
▁காங்கிர 292699
ರಾದ 292687
▁word 292685
ਉਂ 292683
▁संचार 292667
ತರ 292580
▁रोख 292566
▁ಮುಖ 292546
▁लाव 292533
ಿಸಿದ್ದಾರೆ 292513
▁जुलाई 292500
थायनि 292456
▁चो 292420
▁आतंक 292415
ചന 292407
▁कमजोर 292407
▁स्वागत 292395
▁प्राथमिक 292369
▁मिलने 292304
▁ತೆಗೆದುಕೊಳ್ಳ 292251
▁ഇന്ന് 292200
▁கைய 292191
دت 292153
నని 292149
▁ആരംഭ 292102
▁हिसाब 292089
▁ಇನ್ನ 292089
اتا 292015
▁प्रशंसा 291978
ಿಸುತ್ತಾರೆ 291942
▁ଚାଲି 291908
বাহ 291906
▁3, 291834
▁बेटे 291806
لاح 291803
▁মরি 291771
▁અલગ 291767
▁समिति 291763
▁American 291691
மானது 291671
ంటారు 291657
▁ਵਾਲਾ 291642
इण 291606
▁ভার 291602
ದ್ಯ 291540
ୋର 291520
▁ਕ੍ਰ 291509
ியான 291470
▁बीमारी 291466
ங்கில 291429
▁ತಾ 291407
▁থোক্ 291361
▁ধারণ 291355
വു 291318
▁फक्त 291293
▁कार्यं 291292
▁shuh 291289
ভেল 291276
ఫ్ 291276
ತೆಯನ್ನು 291274
▁ಅಭ 291220
▁अट 291210
▁नास 291205
▁आरोग्य 291184
ନ୍ଯ଼ 291180
ত্ত‍ 291174
▁भूल 291164
▁வீடு 291130
▁गाह 291098
ೀಕರಣ 291083
വൻ 291041
▁மருத்துவ 291041
▁વૃ 291012
▁36 290992
▁اش 290942
ീർ 290904
old 290898
▁ਅਕ 290878
▁महिलाओं 290779
નને 290776
ati 290757
નિક 290652
▁গৈ 290652
▁present 290625
hy 290611
▁ವಸ್ತು 290587
▁हाद 290541
▁ന്യൂ 290537
▁හැ 290528
▁परिस्थिती 290466
િકો 290462
ുണ്ട 290448
▁തുറ 290322
▁नज़ 290304
▁ಸಂಖ್ಯ 290293
ರಿಸಲು 290286
▁ଭାଇ 290274
ङ्ग् 290257
wa 290252
▁टुक 290234
▁ਟੀ 290216
▁இழ 290212
सिर 290134
▁দর 290106
▁জয় 290082
▁ਪਿੰਡ 290076
▁அதில் 290054
▁উপল 290035
eth 290031
સ્તા 290030
ीप 290019
▁August 290019
▁வைர 289981
▁ರಲ್ಲಿ 289955
▁আজি 289926
▁thought 289902
▁चाहि 289892
ੰਤ 289804
ꯣꯡꯆ 289792
▁ब्रह्म 289742
▁আবার 289731
ुव 289621
▁कौशल 289593
▁ಒಳ್ಳೆಯ 289589
▁మీద 289569
्याद 289550
▁তৌখি 289513
▁যুদ্ধ 289510
▁understand 289487
▁bar 289440
খ্রবা 289432
▁ड्र 289410
▁सोने 289368
▁அவர்கள 289325
▁सहज 289243
▁शिक्षक 289128
೦ 289124
▁ವಿಧಾನ 289077
▁दाखल 289058
▁ꯀꯝꯄ 289020
▁প্রকল্প 288990
▁ਪਿਆ 288944
ज़न 288923
▁त्यसैले 288908
ത്തേ 288905
kam 288902
▁ਜਗ 288900
▁പങ്ക 288897
▁With 288850
▁ᱦᱚᱭ 288824
पै 288802
▁मंगल 288768
▁ஆண்ட 288754
ப்பெ 288747
▁ഖ 288727
एच 288602
ళ్ల 288589
▁ദേശ 288589
▁स्वीक 288546
चाई 288536
▁सामान 288500
▁making 288499
▁उत्तरी 288478
নীতি 288426
▁विवे 288396
▁फरक 288390
▁ਬਣਾਇਆ 288386
കൊ 288352
▁বিভ 288312
रदे 288309
▁वाद 288265
▁आधी 288254
▁ꯃꯔꯥꯜ 288244
ലിയ 288236
▁முதல்வர் 288201
▁शिक्षण 288099
ৰিক 288076
▁تس 288052
▁मध 288023
అ 288010
▁सम्मेलन 288000
▁ফোঙদোক 287992
▁அடுத்த 287980
bor 287917
▁চনৰ 287886
▁घंटे 287885
▁গি 287867
▁हाम्रो 287839
वस्थ 287818
दल 287805
▁Con 287652
▁hap 287610
टिक 287574
▁वर्सां 287558
पं 287535
— 287512
▁ਇੱਥੇ 287495
র্শ 287450
▁सगळ्यांत 287445
▁বস 287443
ुक्त 287399
ెం 287382
▁उत्तम 287375
සා 287347
▁ചെയ്തി 287339
▁ହି 287311
▁बड्ड 287274
▁ओत 287265
ത്ഥ 287260
ਖੇ 287231
▁సిద్ధ 287218
▁आफू 287210
▁ବିଶ୍ୱ 287205
▁యు 287193
▁bring 287179
▁படை 287173
▁கல்வி 287149
▁ᱥᱚ 287132
టో 287122
vers 287104
8. 287090
▁দিব 287089
▁चाहैत 287063
ाई 287038
ೋರ್ 287008
ात्र 286970
▁ज़र 286959
▁less 286929
▁વાર 286910
दायक 286901
▁പോലെ 286864
্রিয়া 286862
▁தமிழக 286840
▁மறை 286800
گار 286771
ꯉꯥꯏ 286768
उंट 286751
පු 286721
▁received 286718
▁बू 286712
▁सलीम 286707
ாலி 286706
പ്പെട്ടി 286705
cy 286701
سہ 286664
▁born 286644
haw 286638
जरी 286620
▁তারপর 286546
പ്പോഴും 286537
▁کٲ 286503
ତିକ 286482
ത്യാ 286411
▁following 286373
▁மாட்ட 286361
▁വർഷ 286360
▁सग 286331
ങ്ങിയ 286319
▁લોકોને 286298
▁त्याच 286286
kai 286282
ಂತ್ರ 286278
▁क्ला 286264
▁ପ୍ରାଯ଼ 286232
▁court 286231
▁کرو 286231
ᱟᱛᱮ 286208
▁Narendra 286165
ుడు 286140
▁এফ 286134
ন্দি 286119
▁ভাষ 286118
दर् 286111
▁संघर्ष 286085
▁ਜਲ 286028
▁ਮੋਦੀ 286012
▁ৰাষ্ট্ৰ 285898
▁जिले 285890
▁ਪੇਸ਼ 285850
▁یقین 285831
▁thing 285808
ત્મક 285762
▁সমাজ 285745
ire 285735
▁గొప్ప 285730
▁chief 285722
▁క్ 285698
▁തട 285674
મના 285657
▁ਪੁਲਿਸ 285655
▁ଦ୍ୱ 285610
▁ਸਥ 285592
▁yet 285588
ov 285575
▁कोटी 285551
ਬੂ 285537
▁mih 285527
▁دش 285507
▁అతనికి 285470
फि 285438
ாரம் 285433
▁ఇవ్వ 285430
▁वारे 285418
जाया 285395
▁1950 285336
▁अत्यंत 285320
▁ਸਟ 285278
▁big 285268
ினி 285263
▁विद्या 285166
▁बण 285165
▁coronavirus 285158
▁ಗಾ 285121
▁खेती 285098
ඟ 285077
▁ನಿರ್ವಹ 285066
▁વિશ્ 285039
▁రే 285012
▁ഊ 285010
▁पट 284964
்க்க 284924
এর 284915
ᱚᱭ 284880
▁దానిని 284852
▁ڇڏیو 284800
▁ꯄꯥꯡꯊꯣꯛ 284756
▁ફરીથી 284732
▁କରିଥିଲା 284721
▁डिस्ट 284704
▁விவசாய 284695
▁فو 284660
▁സമ്പ 284652
ക്സ 284524
▁ବିଭିନ୍ନ 284463
▁बहस 284404
▁months 284391
ꯗꯃꯛ 284372
▁ఆర్ 284366
▁ദിവസം 284359
▁लें 284285
▁මෙ 284246
▁ಸುತ್ತ 284169
▁সৰু 284168
ੈਕਟ 284099
ାଇବା 284047
තිය 284002
▁مقرر 283987
▁समीक्षा 283947
▁ಸಂಕ 283925
▁१९ 283923
▁رہے 283907
▁వ్యా 283889
▁ওর্ 283879
ಹೋಗ 283877
▁পিছ 283859
▁based 283839
▁ہونے 283830
ಳಿಯ 283824
▁ಆಹಾರ 283814
ସ୍କ 283799
▁ফিরে 283769
▁کمی 283739
▁असल्या 283718
ઇન 283713
▁हालत 283697
▁ରହିଛି 283695
▁පැ 283690
▁बीमा 283686
igh 283680
തെ 283677
ುತ್ತೇವೆ 283645
लाया 283536
hat 283524
▁அழு 283485
গো 283467
प्ल 283444
▁చేసే 283377
▁നമുക്ക് 283374
வர்களுக்கு 283356
▁पर्छ 283289
ന്മ 283233
ళ్ళ 283206
▁ନେ 283202
▁වන 283176
దం 283162
▁രക്ഷ 283160
الو 283124
▁service 283123
▁খেল 283121
▁ഭൂമി 283112
▁எல்லா 283104
ିନ 283084
▁চনত 283042
लाइन 283017
▁कन् 282989
थु 282988
ress 282920
▁நிறுவ 282915
▁बाइ 282884
▁لڳ 282863
▁معلومات 282863
▁علائ 282846
▁खौ 282835
▁رہا 282819
▁वाहन 282787
▁શોધ 282786
ற் 282775
न्ध 282768
▁पुल 282766
ret 282748
ರುವುದು 282746
मंत्र 282737
▁உணவு 282734
▁నె 282721
इंट 282710
ᱤᱭᱚᱱ 282700
▁ٻئی 282664
▁34 282648
জনক 282627
▁open 282585
▁तात 282575
क़त 282559
▁period 282553
যো 282521
▁دف 282517
▁ಜೋ 282507
atn 282492
▁जित्थै 282479
▁వ్యక్తి 282472
▁third 282417
یکس 282407
ब्लिक 282400
▁प्रच 282394
ویز 282386
ਤਿ 282330
▁दौरा 282324
ਤਾਵਾਂ 282279
വിന്റെ 282278
▁मुक 282269
▁report 282248
হীন 282238
▁ହୋଇଛି 282211
స్ట 282193
▁ষ্টেট 282193
▁सम्म 282175
जाद 282129
ਮਾਣ 282082
ಿಕೊಂಡು 282071
டா 282046
▁સમજ 282046
ારે 282009
▁காய 281972
ata 281970
▁ग्रे 281963
▁ଦା 281956
యన్ 281944
▁গৈছিল 281944
▁होंदी 281910
ಲ್ಲೆ 281836
▁मते 281769
ઓએ 281728
▁श्रम 281709
ൻസ് 281706
▁அணி 281699
ंदगी 281634
वटी 281624
दिष्ट 281602
▁गले 281592
୍ରମ 281579
▁শান্তি 281564
▁അവസാന 281561
▁कलाकार 281550
മുണ്ട 281547
ꯚꯤ 281544
▁ਬਰ 281533
▁रोजगार 281490
ڈو 281488
▁মনুং 281488
േശ 281442
▁ಸೂ 281442
▁बनाओ 281431
▁BJP 281423
▁बज 281411
▁shim 281362
लॉजी 281353
▁ಶಾಲ 281258
▁मुमकिन 281251
▁સંપૂર્ણ 281251
▁సరి 281220
▁চঙ 281158
جھ 281141
▁look 281130
▁তাহ 281090
ल्ह 281071
த்தா 281050
▁मूर्ति 281050
▁دین 281047
▁പ്രോ 281031
▁बायो 281023
दूत 281022
▁side 281016
▁एक्सप 281001
▁ରଖ 280852
र्ति 280849
▁पीएम 280836
▁चोट 280833
ர்ப 280826
▁சென்று 280783
▁ਤੀ 280753
▁খন 280685
▁खौरां 280668
▁ચોક્કસ 280635
▁මු 280629
▁അടുത്ത 280608
नुसार 280575
▁নিউ 280566
ුණ 280561
ട്ടും 280500
ടെ 280499
త్తు 280485
▁पंजी 280457
▁خراب 280391
▁नाच 280382
▁ಇರುವ 280328
್ದ 280285
▁ಜನರ 280266
க்கொண்ட 280129
ଦାନ 280102
ಿಯಾ 280062
▁ਜੀਵਨ 280050
▁वजा 280046
▁ಸುಂದರ 280010
▁વી 280006
▁ଗ୍ରହଣ 279936
▁मिनट 279912
▁सोना 279870
▁research 279867
▁ನಡುವೆ 279863
▁আদ 279845
ೇಟ್ 279807
ಂಪು 279794
ಕಾಶ 279783
ികളെ 279741
▁story 279725
▁ऋण 279725
शक्ति 279719
ത്തിനും 279690
▁संसाधन 279676
▁குறிப்பிட்ட 279665
▁जन् 279590
▁പിന്ന 279565
▁قٲ 279548
▁ਕੇਂਦਰ 279541
▁ख़तम 279516
▁मशीन 279514
▁वय 279441
▁ବିକ 279439
▁हिन्दी 279417
ുണ്ട് 279415
▁থাকিব 279414
▁જ્ 279400
▁आहार 279358
നായി 279355
▁पाय 279318
▁যুক্ত 279283
▁ਦੱਸ 279263
▁ഉട 279213
▁ਕਲ 279176
േക്ഷ 279079
ॉड 279064
▁रिकॉर्ड 279003
स्पति 278958
▁अस्मिन् 278940
▁صاف 278807
▁مج 278798
ோதனை 278789
▁political 278724
▁آز 278655
दाव 278642
▁مرڪ 278629
▁பக்க 278600
ગ્ર 278592
▁നിര 278508
್ರಮ 278457
▁قوم 278418
▁பயிற்ச 278417
▁बिब 278382
▁අප 278376
▁अकरोत् 278358
▁ଆପଣଙ୍କ 278343
ലിന്റെ 278328
▁राहा 278324
▁തിരിച്ച 278305
▁ಅಂಗ 278291
ਮਰ 278264
गम 278249
▁ହୋଇଥିବା 278247
ꯦꯔꯤ 278232
पनि 278208
▁વ્ય 278208
ುವೆ 278167
▁ವರ್ಗ 278036
வில 277998
hip 277972
▁വിവര 277957
▁ଦେବ 277933
▁मर्या 277919
▁che 277890
▁परतियै 277829
ଗର 277781
▁మొదటి 277781
डियो 277742
कट 277741
▁बाग 277693
29 277685
▁কুম 277681
▁ஏற்று 277658
▁நண்ப 277647
িকো 277646
▁buh 277636
ज़ार 277604
ার্ড 277597
▁सीमित 277593
▁kumba 277592
▁സ്നേഹ 277469
▁നഗര 277464
▁पाउ 277441
▁শোক 277426
▁অথ 277356
ੋਜ 277335
ರಿನ 277326
▁માહિતી 277322
ेण 277289
▁மல 277273
സ്തു 277221
▁ಬ್ಯಾ 277198
▁خاندان 277197
ాం 277172
सारखे 277152
▁കണക്ക 277147
शत 277111
▁June 277070
స్త్ర 277047
स्वरूप 277046
▁مم 276953
ita 276919
▁पथ 276918
▁दूरी 276885
▁होइन 276876
▁വായി 276872
▁விரை 276862
▁তাঁকে 276853
બ્ 276832
▁പോല 276832
▁ఇలా 276792
ୃହ 276788
▁फायदा 276783
▁ଛା 276782
ذا 276779
খু 276733
▁நடத்த 276722
▁विपरीत 276721
ிக்கொ 276705
ரிக 276697
▁little 276682
bar 276679
▁অসিগুম্বা 276651
ാരണ 276640
▁ಮಾತನಾಡ 276634
▁फारसे 276627
ப்பாக 276597
▁ଦିଆ 276584
పడ 276542
▁ینہٕ 276452
▁ஆயிர 276432
▁কার্য 276427
▁رح 276418
▁ٻن 276399
▁Te 276343
▁કહી 276291
▁रुपए 276273
▁ট্র 276264
▁પ્રકાર 276261
▁Sri 276260
ంచి 276239
वेयर 276234
▁ठाउँ 276211
ক্তুনা 276149
ർമ്മ 276146
ਸਾਰ 276131
ேச 276105
▁મુલાકાત 276097
▁২০১ 276071
পাত 276046
ುತ್ತೀರಿ 276015
ਮਤ 276014
▁फॉर 275995
ৰিয়া 275945
বেল 275917
▁रौ 275893
ಂಟು 275892
▁असली 275871
▁tre 275854
▁ਕਮ 275854
▁kano 275827
लंब 275800
▁series 275791
▁विश् 275790
▁कॉलेज 275789
▁બીજા 275777
▁જશે 275751
▁South 275733
ढ़े 275722
වත් 275722
▁ફર 275674
▁ആർ 275601
▁जिते 275578
گل 275557
ਧਾਂ 275484
▁ਦੱਸਿਆ 275480
▁साँ 275476
ਵਿੱ 275416
▁ହେଲା 275395
ड़ें 275385
▁கதை 275378
▁पिछ 275321
▁ఖ 275320
সাই 275298
ഗ്ഗ 275294
ꯁꯪ 275276
اں 275257
▁যাব 275257
▁ਮਾਲ 275254
▁eyes 275252
▁பாத 275207
▁तस्वीर 275205
▁ਮੱ 275203
වු 275198
සු 275187
▁ସ୍ଥା 275166
▁चुका 275120
દાર 275114
▁காட்ட 275105
▁مخ 275097
▁ନିର୍ମାଣ 275090
▁લાગે 275076
पेक्ष 275060
▁ਦਿੱਲੀ 275050
▁স্তে 275026
্লে 275019
ంటున్న 275015
ley 275003
থায় 274991
মার 274984
▁পরিচাল 274947
ોમાં 274901
▁ਅਰਥ 274875
ওয়া 274872
▁তেতিয়া 274839
റും 274831
ಿಯಾದ 274818
▁ڏان 274787
▁ਉਸਨੇ 274777
▁ਪੁਰ 274765
▁मरण 274732
▁ਕਹਿੰ 274724
io 274719
▁career 274592
▁રૂ 274579
క్స్ 274577
যা 274566
▁આધ 274473
▁উভ 274456
జా 274393
▁bat 274367
മുണ്ട് 274333
▁Union 274306
ಾನಿ 274275
▁நடவடிக்கை 274269
▁मूल्या 274259
साद 274257
ଟର 274233
ଶ୍ୱ 274231
सब 274155
ങ്ങളില്‍ 274141
▁why 274135
टका 274097
▁inc 274060
▁பிரப 274040
▁ꯁꯔꯀꯥꯔ 274000
▁دے 273990
క్ర 273931
ம்பு 273919
▁आध 273904
ার্ট 273881
कडून 273876
▁দুটি 273872
▁Shi 273851
िरी 273848
్వ 273837
▁கத 273806
▁हमला 273803
▁निवासी 273800
▁5, 273794
▁July 273765
▁પહેલા 273732
▁મોદી 273719
ards 273705
▁du 273670
▁लुक 273587
సుకు 273543
▁હેઠળ 273542
▁ദേ 273463
பெ 273459
▁तारी 273432
▁අතර 273389
वू 273366
काच्या 273363
▁ਕਿਸ 273348
ಕ್ರಮ 273346
▁குண 273337
▁آہ 273333
▁Un 273264
▁These 273251
▁হোৱাৰ 273208
வதாக 273169
പ്രക 273121
▁ਵਿਆ 273113
▁نار 273055
▁विज्ञ 273051
বের 273038
▁વાંચ 272990
▁আত্ম 272989
▁છતાં 272922
▁येल 272902
ागिर्द 272895
▁તેમાં 272879
▁সুন্দর 272830
▁Mary 272815
▁ಪ್ರಧಾನಿ 272778
▁ਪੂਰੀ 272739
બે 272725
ুৰ 272687
▁അക 272680
adi 272613
▁കൊണ്ട് 272603
▁বছ 272593
▁গ্রাম 272576
riew 272556
▁দেশে 272545
▁தடு 272540
▁తెలి 272538
खाली 272535
ତାର 272522
▁விழு 272508
▁গ্ৰহণ 272480
▁प्री 272476
টৰ 272455
सिक 272444
▁ಪಡೆದ 272414
▁रेडियो 272405
▁ref 272377
ରର 272368
▁أسۍ 272328
▁हवे 272320
▁बोस 272288
▁சிறப்பு 272252
▁കൂടാതെ 272199
▁ٿیندو 272172
રિ 272145
▁కథ 272115
যু 272086
ಕ್ರ 272060
▁پہلے 272036
ines 272028
ವತ 271957
ٹہ 271952
▁் 271951
chi 271946
▁চৰকাৰ 271909
ైనా 271905
▁percent 271895
▁ভাগ 271851
স্প 271842
▁ran 271812
▁करनी 271694
▁match 271692
▁ஆய்வு 271691
▁ಕಟ್ಟ 271626
▁உற 271620
ଅନ୍ତି 271614
ರಿಸುವ 271614
▁ଯୋଜନା 271611
સ્તી 271582
▁ମହିଳା 271581
ಪಟ್ಟ 271577
নাম 271565
ক্ৰ 271519
ण्याच्या 271514
తే 271502
ऱ 271477
ത്രി 271461
▁केंद्रित 271444
▁Bad 271397
లె 271368
▁নিজ 271326
ീഷ 271318
▁ಹೆಸರು 271296
लेशन 271287
▁سخت 271279
▁பெண் 271244
▁প্রতিষ্ঠ 271237
▁সুবিধা 271235
▁મૂળ 271225
▁acc 271222
▁ಕೊಟ್ಟ 271207
▁पड़े 271200
ಯ್ಯ 271170
▁तुल 271164
निर् 271161
▁تل 271097
னில் 271018
ینن 271012
ગત 271007
वृत्त 270978
wn 270964
ಕಾಲ 270959
▁November 270956
ంద్ర 270955
▁७ 270933
▁ਲੱਗ 270930
▁भले 270922
rib 270917
▁நெரு 270842
▁කිය 270834
வோம் 270833
▁সিদ্ধান্ত 270831
▁ಸ್ವಲ್ಪ 270822
▁ಆರ 270820
▁अनुवाद 270799
▁திரும 270713
▁નવી 270629
▁പക്ഷേ 270588
▁Haba 270579
▁ଅଂଶ 270573
▁বন্ধু 270561
▁ಸಂಸ್ಥ 270532
ଧି 270526
▁शत 270459
▁لائ 270451
▁मही 270447
▁ख़बर 270395
▁হায়রি 270395
▁large 270356
▁गर्मी 270345
साम 270280
षां 270246
▁वेगवेगळ्या 270203
▁ಮಾನ 270131
▁लिंक 270087
▁لائن 270076
▁सुझाव 270056
▁ಗ್ರಾಮ 270032
िएशन 270031
▁परंपरा 270026
ിക്കേണ്ട 269979
▁سری 269960
▁ન્યા 269923
टने 269914
▁කළ 269905
▁ಕೃ 269893
റിന്റെ 269877
▁ਗੋ 269830
କ୍ଷା 269811
দর 269769
କୃତ 269759
പോക 269756
▁विद्यार्थ 269755
▁عمر 269720
▁മുന്ന 269708
ସବୁ 269703
▁அமைப்பு 269703
▁ગણ 269697
▁થયું 269687
ଯୁକ୍ତ 269664
▁ଛ 269661
्याची 269633
▁تقسیم 269630
▁থেংন 269616
▁కల 269519
▁छाया 269501
قا 269450
তগী 269423
േറ്റ് 269410
णाम 269321
▁others 269300
▁धारणा 269298
▁ప్రాంత 269266
▁માર્ગ 269259
▁جون 269245
▁मोज 269185
▁available 269175
▁নামে 269174
ওয়ার 269150
▁গৌ 269138
ാര്‍ 269135
വുമായ 269125
வுகள் 269116
్యు 269107
କେ 269081
▁సంఖ్య 269058
▁फोरमाय 269041
▁সম্পর্ক 269014
ট্ 269011
दाय 268940
ണിയ 268888
ജ്ജ 268886
▁various 268833
▁ವರ್ 268781
▁বৰ 268778
▁दिल्या 268777
تي 268770
▁চল 268768
्रिया 268728
ಿಸಿತು 268710
▁ಪ್ರವೇಶ 268638
ిత్ర 268636
▁ഉദ 268626
▁ताली 268624
▁इत्येषः 268575
ಾಗಿತ್ತು 268573
▁ବଡ଼ 268570
86 268557
সায় 268553
ികളും 268542
યું 268494
▁ज्योति 268487
▁અભ 268450
▁टि 268428
ಟೆ 268397
▁घेतली 268390
ಾರ್ಥ 268384
ঙৰ 268325
ইন 268318
ியும் 268315
▁संकट 268297
ندڙ 268287
ম্বর 268246
▁प्ला 268239
▁lyng 268216
फ् 268172
ർച്ച 268171
ന്ത് 268160
▁सबैभन्दा 268148
▁धन्य 268071
्यों 268006
च्छे 268004
গুলিকে 267997
▁विस्तृत 267955
च्छा 267912
▁সদস্য 267905
ಿಗೆಯ 267886
ார்ப 267874
ষ্ণ 267839
▁मताबक 267832
▁ইলে 267793
▁అంటే 267784
ഗ്രഹ 267734
▁സോ 267718
ria 267708
▁ਬਣਾਉਣ 267691
▁nor 267645
▁bor 267615
▁played 267561
▁بنیادی 267503
▁ਦਿੰਦਾ 267450
▁یور 267445
▁انداز 267437
বাদী 267421
▁برٛونٛہہ 267420
bha 267375
धिकारी 267346
▁ടി 267339
ଶ୍ 267304
▁स्थिती 267257
रिक्ष 267246
▁त्रि 267203
কাশ 267198
▁అర్ 267187
▁स्वस्थ 267177
▁இல் 267162
▁கொள்க 267148
▁কাউ 267133
▁सैनिक 267121
▁વૈ 267112
▁Chief 267092
▁ସେବା 267092
▁स्पश्ट 267062
ેલા 267057
ಗಳಾಗಿ 267037
▁दौर 267032
श्त 267014
▁වූ 266984
▁ଉଚିତ୍ 266955
ਕਤ 266924
ಹ್ 266916
▁ṭ 266906
लास 266840
ময় 266826
▁சந்தி 266787
▁എന്നാല്‍ 266784
ෙක් 266756
্যাল 266711
▁सबसँ 266694
▁kiwei 266686
ષ્ય 266629
▁इंस्ट 266613
पर्य 266609
▁ফাই 266597
▁हँ 266576
ਤਰੀ 266562
ચાર 266555
▁Ex 266511
▁अब् 266465
▁গোল 266461
▁மத 266428
▁जनाः 266427
▁वारा 266408
▁বিল 266397
▁साझा 266390
▁فض 266380
▁লায়না 266367
▁உயர் 266350
▁टिप्पणी 266349
ந்தை 266346
▁নম্বর 266332
▁राहुल 266313
ালা 266247
ర్మ 266222
▁2002 266178
▁ବୃଦ୍ଧି 266177
▁सहा 266176
▁ପ୍ରଶ 266141
▁पार्श्व 266113
▁चलते 266104
▁سماجی 266092
▁ଉତ୍ତ 266070
▁kind 266051
▁ست 266048
▁नमीं 266022
▁ವಿಶ್ವ 265934
8) 265894
▁आहोत 265877
▁रोज़न 265865
ꯤꯡꯕ 265752
▁জায় 265746
कर्त 265729
▁hands 265701
▁शै 265647
▁வகு 265643
নৈতিক 265628
▁soon 265626
▁ਖੋਜ 265556
", 265486
ഷൻ 265400
▁ਦੂਜੇ 265389
▁reported 265387
▁মরুওই 265373
▁ৰূপ 265372
ക്കൾ 265356
▁பேருக்கு 265328
▁খাদ্য 265320
ರ್ಮ 265308
▁طری 265296
▁ક્ર 265296
▁గ్ర 265282
▁ꯑꯃꯥ 265236
▁இருந்தால் 265195
▁prom 265182
▁মতা 265150
ටි 265149
▁தயாரி 265140
ळख 265106
▁മന്ത്രി 265074
னார் 265003
స్తున్నారు 264978
வச 264963
▁केवळ 264912
نٛد 264892
▁பார்த்து 264892
▁ഉത്ത 264871
▁tawh 264842
▁تعداد 264834
ಕನ 264831
▁शेर 264822
▁ꯋꯥꯌꯦꯜ 264804
▁ಸಚಿವ 264738
▁বিষ 264723
ર્સ 264712
▁കൂ 264709
ମ୍ପ 264695
▁fin 264684
▁लगाया 264674
9. 264670
▁अज्ज 264667
▁কেবল 264627
लेस 264568
▁எடுக்க 264558
▁ফেল 264556
▁ڪا 264529
▁دوبار 264528
▁இல்லாத 264525
▁ஞ 264509
▁ਠ 264491
ैं 264457
ிருக்கிறது 264445
▁phah 264444
▁stay 264392
شنل 264388
▁ಪುಸ್ತಕ 264360
lah 264354
▁lang 264336
▁ಗಳ 264329
ریہ 264294
ళ్లు 264275
୍ସ 264273
▁رنگ 264269
ख़ 264265
விடு 264242
તરી 264219
▁awm 264208
▁மி 264191
ᱟᱸ 264188
▁able 264152
▁फ्रांस 264147
▁main 264146
▁ضروری 264136
▁working 264131
▁ਤੁਰ 264123
▁समयमा 264072
▁அம் 264064
ural 264061
▁हको 264042
▁inf 264033
▁मावख 264018
रीय 264010
थायाव 263915
▁सोम 263879
▁পুলিশ 263872
▁ऑपरेशन 263871
law 263851
▁කරන 263850
ত্থা 263845
▁තිබ 263812
▁رہی 263769
▁ਸੂ 263756
▁पहला 263749
▁இதில் 263729
lai 263721
▁ನ್ಯಾಯ 263699
विष 263671
ट्रिक 263633
ುವಂತೆ 263608
▁साधन 263503
▁ज्ञात 263498
ିକୁ 263493
▁वर्षों 263483
▁तकरीबन 263447
▁better 263438
▁जाहिमे 263432
▁ಕ್ಷ 263416
ତ୍ଯ଼ା 263412
▁راست 263387
লৈকে 263384
▁तकनीकी 263375
▁பேசு 263364
▁உதவி 263355
▁फीसदी 263353
്യാ 263347
लेली 263336
▁सानो 263335
aith 263320
▁ꯃꯃꯤ 263268
ther 263232
▁ಸಾಮಾನ್ಯವಾಗಿ 263222
ിക്കൽ 263217
▁জীবন 263134
ীত 263112
▁ਦੂਰ 263085
▁ఒక్క 263052
cle 263036
▁मृ 263020
ୁଲ 262988
▁परिसर 262985
ادری 262914
ண்ப 262854
মু 262842
ற்காக 262840
cted 262827
▁ओह्दे 262827
▁ഹി 262784
▁ಸಾಮಾನ್ಯ 262783
▁வேண்டு 262766
▁দুৰ্ 262756
▁تاریخ 262724
ಯು 262712
▁ਗ੍ਰ 262711
ற்றில் 262705
▁उर 262700
▁સારી 262699
▁સફ 262697
-4 262670
▁भागी 262645
▁எளி 262548
ୋଇ 262543
▁ਅੱਖ 262523
੍ਹੀ 262496
ان۔ 262468
ریب 262454
හි 262443
▁आयोजन 262412
टेर 262376
▁ఇంకా 262352
▁Sha 262322
िनः 262260
▁ପୁନ 262218
ଞ 262192
വാസ 262178
▁मंग 262135
▁ਸੋਚ 262121
▁கல்ல 262086
जण 262075
tei 262024
▁ਯਾਦ 262016
▁ദിവസ 261979
▁ਵਾਪਸ 261919
ਭਿਆ 261875
▁शाह 261841
▁অসিবু 261835
▁नास्ति 261724
▁தள 261715
झी 261632
▁পৰ্য 261606
▁cent 261549
▁ಬಾರಿ 261536
▁मिट्टी 261528
▁સમયે 261518
▁ਬੋਲ 261481
▁पुराने 261454
▁தின 261450
ଶି 261435
ार्थी 261410
ശ്യ 261406
▁reports 261402
▁بش 261398
▁जिसने 261397
▁ᱚ 261384
▁ଦୁଇ 261366
▁বিত 261341
king 261340
▁चक्र 261333
ंजी 261324
▁ಬೇರೆ 261280
▁રહ 261273
కె 261271
▁جیڪا 261256
ப்பான 261168
ੈਰ 261150
നിയ 261147
▁তানা 261138
▁متاثر 261129
पक्ष 260981
▁सजा 260978
▁مائ 260961
▁सार्व 260883
▁speak 260879
బడింది 260850
▁पीड़ित 260750
▁ꯚꯤ 260740
ਣਾਂ 260658
▁ଉଚ୍ଚ 260646
ਜਨ 260644
▁جھ 260585
▁कारक 260520
▁கொண்டிருந்த 260517
▁இனி 260516
▁ඔ 260461
▁পুনৰ 260460
र्मा 260426
▁शुल्क 260360
▁පො 260338
▁ಸರ್ 260333
కుండా 260328
ꯛꯀꯤ 260316
ٹک 260301
▁گئی 260296
▁कने 260293
▁whom 260286
▁सय 260241
▁त्रास 260230
त्रिक 260206
▁পাওয়া 260201
▁‘‘ 260178
▁win 260129
പോലെ 260127
▁جدید 260123
▁ਵਾਂਗ 260123
▁வலை 260119
▁અંત 260114
▁કાય 260112
▁ਵਾਲੀ 260109
ଛୁ 260104
তের 260074
േയ 260056
▁পূৰ্ 260030
65 259977
ग़ 259963
ెస్ 259961
▁கேட்க 259958
તમાં 259954
ಕಾರಿ 259919
ڑے 259912
▁ah 259908
▁انتظام 259818
▁स्वरूप 259811
▁दर्द 259800
▁ওপ 259723
▁eat 259683
cc 259665
▁লক্ষ্য 259631
[...]
